<unk>	0
<s>	0
</s>	0
▁	-2.76825
,1	-3.80304
,0	-3.8047
.	-3.83869
이	-4.44245
..	-4.67702
의	-4.84688
가	-4.89306
▁영화	-4.90606
...	-4.92104
도	-4.97073
는	-5.04016
"	-5.05135
을	-5.12992
2	-5.17527
1	-5.17684
,	-5.17904
4	-5.26043
에	-5.26153
7	-5.26887
고	-5.27708
3	-5.27817
8	-5.31075
9	-5.31679
다	-5.32071
5	-5.32186
6	-5.34885
은	-5.35079
0	-5.36173
지	-5.38502
한	-5.44408
?	-5.62641
를	-5.72844
만	-5.75184
로	-5.78842
나	-5.83894
영화	-5.89154
게	-5.90217
!	-5.92558
아	-5.99131
▁너무	-6.00474
어	-6.09564
과	-6.12122
기	-6.13927
인	-6.14735
리	-6.18812
~	-6.20557
하고	-6.24527
라	-6.32344
와	-6.3344
서	-6.35639
▁정말	-6.35987
네	-6.37924
▁이	-6.38764
점	-6.39085
으로	-6.39723
들	-6.41432
에서	-6.45756
▁안	-6.47829
해	-6.48253
요	-6.50195
▁그	-6.51268
스	-6.51876
거	-6.52774
자	-6.53927
▁잘	-6.572
....	-6.58093
네요	-6.59563
음	-6.61456
▁진짜	-6.62121
하는	-6.6341
시	-6.66524
수	-6.68635
면	-6.70251
대	-6.71399
정말	-6.72733
진짜	-6.72849
!!	-6.73791
▁더	-6.75358
."	-6.77422
야	-6.80958
▁수	-6.81304
하	-6.81385
사	-6.83298
▁왜	-6.83329
니	-6.83679
▁본	-6.86618
▁다	-6.87052
하다	-6.876
하게	-6.87823
일	-6.89501
▁드라마	-6.89887
정	-6.89919
지만	-6.90736
함	-6.91457
진	-6.94299
내	-6.96597
▁10	-6.97002
미	-6.97786
구	-6.99997
할	-7.00102
이다	-7.00412
여	-7.0077
데	-7.01209
안	-7.0146
상	-7.02307
우	-7.02953
주	-7.03424
너무	-7.04483
▁보고	-7.05241
성	-7.06163
임	-7.06397
신	-7.07101
▁이런	-7.07485
▁연기	-7.08191
드	-7.08249
장	-7.0999
부	-7.12712
▁아	-7.13555
보다	-7.14352
▁영화를	-7.14613
전	-7.1485
까지	-7.15671
개	-7.17199
들이	-7.17461
는데	-7.19247
냐	-7.20995
적	-7.21086
트	-7.21373
▁좀	-7.22206
마	-7.22921
해서	-7.23234
그	-7.2344
ᄏᄏ	-7.24308
▁봤는데	-7.2433
치	-7.24795
난	-7.25124
듯	-7.25453
보	-7.25671
화	-7.25776
▁없다	-7.25829
중	-7.26029
▁그냥	-7.26071
보고	-7.2632
려	-7.26438
▁1	-7.27036
오	-7.27578
▁못	-7.278
▁없는	-7.27948
원	-7.2888
던	-7.29554
▁한	-7.29717
▁있는	-7.32239
히	-7.32618
▁나	-7.33527
▁영화는	-7.33791
▁최고	-7.34998
▁내	-7.35213
습니다	-7.36324
질	-7.37216
비	-7.37489
때	-7.3792
!!!	-7.3908
건	-7.39532
분	-7.39925
▁ᄏᄏ	-7.40399
▁보	-7.4041
물	-7.41038
▁것	-7.41161
▁스토리	-7.41189
▁쓰레기	-7.41573
^^	-7.41589
랑	-7.41723
러	-7.42242
▁평점	-7.42776
▁다시	-7.42984
▁참	-7.43351
▁영화가	-7.4346
세	-7.43875
▁보는	-7.44748
입니다	-7.44909
용	-7.45027
소	-7.47521
▁개	-7.47745
감	-7.4894
말	-7.49019
급	-7.49213
▁작품	-7.49631
▁말	-7.49696
유	-7.49954
10	-7.50379
적인	-7.51321
▁무	-7.52018
▁최고의	-7.52105
ᄏ	-7.53028
무	-7.53541
라고	-7.54382
것	-7.54666
본	-7.55812
;;	-7.55828
그냥	-7.55912
▁뭐	-7.56165
식	-7.56353
이런	-7.56517
년	-7.57068
~~	-7.57224
된	-7.57976
▁볼	-7.58085
▁사랑	-7.58284
더	-7.58516
했다	-7.58616
▁이렇게	-7.58995
▁좋은	-7.59153
영	-7.59262
인데	-7.59506
작	-7.59818
▁생각	-7.59957
'	-7.60024
하지	-7.60133
심	-7.61106
같은	-7.61162
운	-7.61256
편	-7.63211
선	-7.63212
드라마	-7.63655
이거	-7.63889
디	-7.64291
씨	-7.64973
제	-7.65319
조	-7.65493
▁넘	-7.65787
??	-7.66568
동	-7.67123
▁많이	-7.67936
남	-7.67974
▁그리고	-7.6858
줄	-7.68973
었다	-7.69073
명	-7.70056
▁이건	-7.70166
군	-7.70439
▁하나	-7.7045
평점	-7.70458
좀	-7.70871
▁저	-7.71503
라는	-7.71565
ᄏᄏᄏ	-7.72528
부터	-7.72955
▁별로	-7.73343
레	-7.73554
▁주	-7.73751
없는	-7.7383
어요	-7.74105
▁감동	-7.74275
모	-7.7452
ᅲᅲ	-7.75278
호	-7.75561
▁중	-7.7558
란	-7.75776
크	-7.75952
▁또	-7.76119
▁없고	-7.76218
▁하는	-7.76715
▁재밌게	-7.77547
▁전	-7.78189
이나	-7.79529
간	-7.80008
울	-7.80043
당	-7.80553
▁이거	-7.80777
위	-7.80945
▁완전	-7.80977
긴	-7.81176
▁내가	-7.81613
바	-7.82225
걸	-7.82307
왜	-7.82607
민	-7.83431
단	-7.83945
린	-7.84022
▁아깝다	-7.84328
▁이야기	-7.8458
내가	-7.86024
하나	-7.86152
에게	-7.86386
두	-7.86411
▁없	-7.86785
▁재미	-7.86861
▁어	-7.873
연	-7.87325
▁마지막	-7.87504
연기	-7.87523
▁비	-7.87557
▁감독	-7.87559
▁액션	-7.88268
)	-7.88274
▁명작	-7.88514
▁만든	-7.88531
▁대	-7.88786
▁꼭	-7.88815
▁오	-7.89006
▁할	-7.89724
있는	-7.90049
▁아니	-7.90161
▁미	-7.9075
▁지	-7.90921
;	-7.91058
후	-7.91214
▁보면	-7.91711
완전	-7.91739
발	-7.92071
저	-7.9213
▁사	-7.92181
들의	-7.92867
으	-7.92899
▁평점이	-7.93103
▁되	-7.93363
류	-7.93482
재	-7.93892
애	-7.94258
노	-7.94296
한다	-7.94636
이게	-7.94652
래	-7.94797
ᅲ	-7.94805
피	-7.95103
합니다	-7.95407
▁하	-7.95697
방	-7.95819
▁가장	-7.95901
▁배우	-7.9597
▁20	-7.96056
▁다른	-7.96272
르	-7.96274
▁일	-7.97053
으면	-7.97186
워	-7.97525
시간	-7.97949
생	-7.98105
박	-7.98434
▁남	-7.9868
▁시간	-7.98791
희	-7.98876
▁기대	-7.9923
살	-7.99703
처럼	-7.99806
▁정	-8.0014
▁자	-8.00387
타	-8.00413
이건	-8.00432
▁느낌	-8.00477
경	-8.00798
▁내용	-8.00908
되는	-8.01535
참	-8.01553
없이	-8.02574
보는	-8.02695
▁2	-8.02718
▁거	-8.02901
날	-8.03022
판	-8.03046
▁마	-8.03361
▁좋아	-8.03579
루	-8.03649
▁ᄏᄏᄏ	-8.03801
볼	-8.03967
잘	-8.03985
▁무슨	-8.04107
했던	-8.04317
엔	-8.0434
회	-8.0435
티	-8.0436
든	-8.04377
▁처음	-8.04637
▁영화다	-8.04747
길	-8.04876
준	-8.05205
▁연출	-8.05508
반	-8.05532
역	-8.06563
▁난	-8.06601
(	-8.06647
번	-8.06759
님	-8.0714
▁돈	-8.07158
인가	-8.07655
코	-8.07664
최고	-8.07883
까	-8.08562
▁조	-8.08607
사랑	-8.0871
국	-8.08999
▁때	-8.09411
재미	-8.09591
인지	-8.09619
계	-8.09824
ᅳᅳ	-8.0995
▁애	-8.10111
못	-8.10704
관	-8.10755
"""	-8.11217
극	-8.11237
들은	-8.11275
형	-8.11395
▁유	-8.11397
▁ᅲᅲ	-8.11984
▁부	-8.12152
▁사람	-8.12255
▁있다	-8.12283
생각	-8.12327
지는	-8.12458
구나	-8.12481
▁두	-8.12681
니다	-8.12704
며	-8.13
▁같은	-8.13016
망	-8.13544
▁봤다	-8.13903
▁101	-8.14016
▁이게	-8.14866
▁여자	-8.15135
있	-8.15137
겨	-8.15464
하지만	-8.15664
때문에	-8.15916
▁ᅳᅳ	-8.15965
하면	-8.16023
▁모	-8.16468
역시	-8.1656
▁하지만	-8.16917
▁후	-8.17143
프	-8.1717
▁지금	-8.17228
현	-8.17258
▁만들	-8.17345
죠	-8.17503
짱	-8.17675
차	-8.17772
▁3	-8.17876
▁모두	-8.18082
▁ᄏ	-8.18257
파	-8.18397
▁한국	-8.18436
별	-8.18573
▁별	-8.18588
▁기	-8.18724
▁만들어	-8.18764
▁좋다	-8.18792
▁소	-8.19031
면서	-8.19283
▁같다	-8.19294
-	-8.19331
키	-8.19921
▁한번	-8.20023
▁신	-8.20154
▁끝까지	-8.20287
지도	-8.20354
다가	-8.20511
▁알	-8.2058
▁반	-8.21106
이랑	-8.21219
되	-8.21616
산	-8.21803
보면	-8.21917
아니	-8.22886
었는데	-8.23317
▁해	-8.23425
이라	-8.23474
배	-8.23699
림	-8.23732
▁끝	-8.2378
적으로	-8.24143
하네요	-8.2416
카	-8.24477
▁실망	-8.2451
▁역시	-8.24524
쓰레기	-8.24543
▁88	-8.24695
▁대한	-8.24777
▁남자	-8.25011
▁이상	-8.25081
▁시	-8.25163
▁아니라	-8.25306
▁19	-8.25385
▁나오는	-8.25408
터	-8.25645
o	-8.257
▁김	-8.25733
▁줄	-8.26119
▁그런	-8.26432
봤는데	-8.26455
▁인생	-8.26581
▁아닌	-8.26716
스트	-8.26807
체	-8.26948
▁봐도	-8.27138
▁구	-8.27593
스토리	-8.27702
나는	-8.27711
공	-8.27751
매	-8.27821
▁내내	-8.27889
김	-8.28022
없다	-8.28164
겠다	-8.28727
것도	-8.28952
▁재	-8.29163
▁많은	-8.29231
e	-8.29311
다니	-8.29727
였다	-8.29826
점도	-8.29959
토	-8.29974
▁배우들	-8.29978
▁장면	-8.30164
▁전개	-8.30195
즈	-8.30289
▁재밌	-8.3032
s	-8.30581
▁않고	-8.30704
▁전혀	-8.31097
▁이해	-8.3126
▁일본	-8.31411
넘	-8.31773
실	-8.31926
액션	-8.32155
감동	-8.32402
하네	-8.32816
▁40	-8.33028
▁있	-8.33098
문	-8.33283
한테	-8.33413
▁제	-8.33414
t	-8.33501
버	-8.33618
이라는	-8.33741
▁정도	-8.34235
영화가	-8.34542
배우	-8.34643
는게	-8.34656
▁코미디	-8.34912
집	-8.35011
최고의	-8.35158
않	-8.35902
▁수준	-8.35981
양	-8.36135
속	-8.36453
광	-8.36576
▁계속	-8.36737
뭐	-8.3681
ᄒᄒ	-8.36917
등	-8.36967
이고	-8.3728
▁만드는	-8.37485
▁현실	-8.37638
행	-8.37648
▁추천	-8.3815
▁울	-8.38515
▁'	-8.38573
영화를	-8.38659
쳐	-8.38702
었음	-8.38815
▁대사	-8.38819
달	-8.39167
였	-8.39279
슬	-8.39295
들을	-8.39298
▁짱	-8.39344
▁불	-8.39683
▁않은	-8.39747
▁21	-8.39881
마지막	-8.39999
▁어떻게	-8.40148
▁아니다	-8.40308
없	-8.40393
20	-8.40468
었던	-8.40512
점이	-8.40565
정도	-8.40898
사람	-8.41062
절	-8.41189
▁매력	-8.41312
별로	-8.41618
감독	-8.42025
죽	-8.42074
니까	-8.42116
강	-8.42136
초	-8.42179
솔직히	-8.42256
▁강	-8.42392
움	-8.42528
▁최악	-8.42564
예	-8.42649
▁바	-8.42672
▁맞	-8.42738
▁기억	-8.42955
▁나오	-8.4316
머	-8.43343
▁보기	-8.4338
불	-8.43529
▁반전	-8.43557
d	-8.43625
▁ᄒᄒ	-8.43866
!!!!	-8.43914
던데	-8.43934
뿐	-8.43978
어서	-8.44068
좋	-8.44166
▁웃	-8.44507
이란	-8.44519
블	-8.44556
▁그래도	-8.44563
▁뭔가	-8.44581
▁아까운	-8.44639
▁연기가	-8.44701
알	-8.4478
▁않는	-8.45003
▁말이	-8.45136
▁우리	-8.45197
금	-8.45198
i	-8.45579
담	-8.45689
▁연기도	-8.45825
▁캐릭터	-8.45977
격	-8.46176
▁조금	-8.46393
만큼	-8.46492
져	-8.46497
너	-8.47058
▁영	-8.47065
▁속	-8.47157
▁연기력	-8.4738
▁공	-8.47438
~~~	-8.47472
해요	-8.47851
씬	-8.47883
▁진	-8.47973
▁재밌다	-8.48111
평	-8.4831
영화는	-8.48413
ᄒ	-8.48516
▁스	-8.48782
장면	-8.49025
▁표현	-8.49189
했는데	-8.49606
▁14	-8.4977
▁재미있게	-8.4985
지금	-8.49853
술	-8.49916
평점이	-8.50005
건지	-8.50113
,,	-8.50447
하기	-8.50542
▁우	-8.50697
법	-8.50764
업	-8.50775
▁제일	-8.5093
▁발	-8.51197
하면서	-8.51203
♥	-8.5131
년대	-8.51392
결	-8.5154
꺼	-8.51769
▁개봉	-8.51776
▁장	-8.51913
학	-8.51927
▁공감	-8.52025
을까	-8.52139
▁28	-8.52302
▁딱	-8.52425
돈	-8.52585
▁듯	-8.52614
는지	-8.52699
▁건	-8.52814
태	-8.52875
▁싶다	-8.53048
▁최악의	-8.53068
▁동	-8.53078
▁눈	-8.53166
▁근데	-8.53288
▁공포	-8.53428
이라고	-8.53438
표	-8.53465
▁아니고	-8.53584
먹	-8.53808
▁욕	-8.53974
▁아주	-8.53992
굿	-8.5419
브	-8.54211
▁소재	-8.54315
릴	-8.54378
▁주인공	-8.544
난다	-8.54731
포	-8.55068
▁내용이	-8.55107
언	-8.55122
ᄏᄏᄏᄏ	-8.55618
기대	-8.55703
▁대박	-8.55979
▁제대로	-8.56159
a	-8.56219
테	-8.56408
▁걸	-8.56567
존	-8.56608
았	-8.56615
▁재미있	-8.56656
해도	-8.56795
승	-8.56907
ᅳ	-8.56918
▁심	-8.57177
▁재미없다	-8.57221
▁박	-8.57433
▁100	-8.57487
더라	-8.57513
▁쓰	-8.57552
▁남는	-8.57557
할수	-8.57599
▁67	-8.5779
는거	-8.58196
▁때문에	-8.58293
했	-8.58418
증	-8.58477
▁12	-8.58514
▁좋고	-8.5856
▁스릴러	-8.58617
▁여	-8.58817
▁가족	-8.58956
▁특히	-8.5898
합	-8.59018
▁18	-8.59074
주는	-8.59288
먼	-8.59328
른	-8.59341
각	-8.59406
▁모든	-8.59455
▁되는	-8.59604
통	-8.59805
인듯	-8.59838
중에	-8.59926
▁상	-8.6
▁좋	-8.60147
▁막장	-8.60195
▁않	-8.60295
내용	-8.60501
악	-8.60555
같	-8.60565
잼	-8.60581
설	-8.6066
점은	-8.60983
여자	-8.61128
▁결말	-8.61191
▁영화입니다	-8.6125
종	-8.61276
라도	-8.61566
▁영화라고	-8.61668
▁피	-8.61694
▁사람들	-8.617
석	-8.61787
ᅮ	-8.62238
따	-8.62257
▁절대	-8.62373
▁영상	-8.62375
▁찍	-8.62421
+	-8.6251
싶	-8.62784
▁주는	-8.62791
끼	-8.62904
가는	-8.63051
▁내용도	-8.63315
좋은	-8.6332
ᅮᅮ	-8.63431
▁하고	-8.63459
▁평	-8.63672
▁몇	-8.63877
▁배	-8.6388
밖에	-8.63958
/	-8.63977
케	-8.6408
▁애니	-8.64328
▁싶은	-8.64596
처	-8.64619
말이	-8.64812
▁좋았다	-8.64843
▁눈물	-8.64935
직	-8.6494
에도	-8.65003
욕	-8.65038
▁노래	-8.65061
려고	-8.65076
▁수작	-8.65095
▁80	-8.65643
▁31	-8.65737
▁아름다운	-8.65834
▁시리즈	-8.65849
19	-8.65919
▁연	-8.65948
""""	-8.66533
▁막	-8.66566
▁93	-8.66714
된다	-8.66727
퍼	-8.66817
녀	-8.66858
다시	-8.66874
▁될	-8.66976
▁이제	-8.6701
창	-8.67065
▁없음	-8.67429
▁예	-8.67852
맨	-8.68108
력	-8.68265
▁이해가	-8.6827
▁봤습니다	-8.68657
▁날	-8.68666
치고	-8.68816
리는	-8.68832
범	-8.68875
락	-8.68952
▁984	-8.69192
▁감독이	-8.69252
▁영화의	-8.69327
▁최	-8.694
환	-8.6944
▁매	-8.6962
▁봤던	-8.6972
;;;	-8.69725
▁노	-8.6975
▁22	-8.70149
▁필요	-8.70253
▁찾아	-8.70382
능	-8.70452
???	-8.70613
작품	-8.70721
병	-8.70813
한국	-8.71106
입	-8.71197
커	-8.71231
갈	-8.71322
▁1000	-8.71338
있다	-8.71574
열	-8.71748
▁엄청	-8.72074
▁보게	-8.72093
근	-8.72418
▁나온	-8.72433
▁OO	-8.72464
재밌	-8.72484
12	-8.72566
침	-8.72696
▁죽	-8.72775
▁아직도	-8.72779
채	-8.72955
▁원	-8.72972
했음	-8.73022
▁괜찮	-8.73857
▁1025	-8.73873
왕	-8.73904
색	-8.74051
▁여운이	-8.74149
점대	-8.74152
▁생각이	-8.74225
▁파	-8.74273
▁기분	-8.74409
에는	-8.74497
OO	-8.74506
▁가슴	-8.74543
▁11	-8.74553
▁사실	-8.74676
거지	-8.74876
기에	-8.74879
백	-8.74919
주인공	-8.7493
..."	-8.74951
봄	-8.75237
▁놀	-8.75431
짐	-8.75434
▁화	-8.75582
천	-8.7561
느	-8.75802
이네	-8.75924
투	-8.75991
보니	-8.76032
새	-8.76192
▁베	-8.76192
구만	-8.76202
름	-8.76216
▁지루	-8.76242
▁스토리도	-8.76262
▁이영화	-8.76273
스러운	-8.76425
▁좋아하는	-8.76982
가서	-8.77165
재미있	-8.77238
▁성	-8.77343
13	-8.77345
또	-8.77421
▁재미없	-8.77434
기도	-8.77444
▁실	-8.77476
▁함께	-8.77513
▁굿	-8.77559
빈	-8.77742
▁세	-8.77753
탄	-8.7776
온	-8.77784
▁보면서	-8.78243
▁보다	-8.78624
▁인간	-8.7864
수가	-8.78849
하며	-8.78885
▁힘	-8.79007
▁있었	-8.79017
록	-8.79111
대로	-8.79143
추	-8.79447
밀	-8.79496
▁잠	-8.79539
봐도	-8.79679
향	-8.79765
▁허	-8.79787
▁시작	-8.79809
▁영화에	-8.79818
명작	-8.799
기는	-8.79936
▁음악	-8.80004
글	-8.8013
권	-8.8015
▁망	-8.80215
올	-8.80306
이지만	-8.80387
철	-8.80399
론	-8.80587
이네요	-8.80826
겠	-8.80884
▁원작	-8.80895
척	-8.80957
베	-8.81061
순	-8.81317
▁스토리가	-8.81358
▁안되는	-8.81462
▁긴장감	-8.81525
잔	-8.81545
▁35	-8.81554
▁느낌이	-8.81571
▁큰	-8.81811
▁보다가	-8.81937
이상	-8.81939
▁명	-8.82014
▁이걸	-8.8207
대박	-8.82073
▁999	-8.82088
▁아이	-8.82159
잡	-8.82177
▁얼마나	-8.82192
▁살	-8.82291
▁사람이	-8.82299
▁멋진	-8.82413
▁보세요	-8.82451
이야	-8.82558
▁영화로	-8.82626
▁못한	-8.82717
▁들	-8.82747
▁졸작	-8.82847
▁봐야	-8.82879
▁16	-8.8293
▁지루한	-8.82941
▁정신	-8.83054
▁출연	-8.83152
이렇게	-8.83247
▁82	-8.83363
엇	-8.83381
▁34	-8.83878
외	-8.84058
▁981	-8.84083
았다	-8.84241
▁행복	-8.84448
▁알바	-8.84952
▁설정	-8.84997
월	-8.85007
▁시나리오	-8.85117
▁재미도	-8.85198
▁분위기	-8.85306
.."	-8.85321
▁알고	-8.85325
▁잼있	-8.85326
▁1007	-8.85366
었어요	-8.85431
▁ᅲ	-8.85649
봣	-8.8584
거야	-8.86275
▁시간이	-8.86309
▁감독의	-8.86311
수준	-8.86348
남자	-8.86385
교	-8.86484
맞	-8.86568
▁된	-8.8659
▁뭘	-8.86745
품	-8.86952
느낌	-8.87031
다른	-8.87123
이걸	-8.8714
좋아	-8.87255
▁요즘	-8.87389
▁공포영화	-8.87419
패	-8.87606
뻔	-8.87617
▁제목	-8.87836
▁담	-8.87904
▁56	-8.87916
▁991	-8.87993
▁연기는	-8.88021
놈	-8.88063
m	-8.88094
될	-8.881
!"	-8.88223
▁의미	-8.88349
▁들어	-8.88357
♡	-8.88461
▁미국	-8.88781
다고	-8.89107
가지	-8.89112
일본	-8.89168
짓	-8.8923
보다가	-8.89363
치는	-8.8938
D	-8.89431
y	-8.89431
▁차라리	-8.8953
▁한국영화	-8.89578
▁1021	-8.89759
▁어떤	-8.90102
잇	-8.90142
됨	-8.90167
처음	-8.9017
▁극	-8.90212
▁후회	-8.90238
▁강추	-8.90381
g	-8.90395
것이	-8.90473
군요	-8.90481
▁졸	-8.90651
메	-8.90711
리고	-8.90915
▁짜증	-8.90923
▁30	-8.90954
만한	-8.91237
▁재밌는	-8.91274
▁^^	-8.91381
버린	-8.91399
▁변	-8.91593
~!	-8.91652
길래	-8.91738
▁뻔한	-8.91767
▁1015	-8.91821
레이	-8.91823
▁985	-8.91919
무슨	-8.91921
났	-8.91922
▁감동적이	-8.91928
▁997	-8.91949
▁적	-8.92147
막	-8.9215
렸	-8.92303
▁모르겠다	-8.92465
▁집	-8.92564
소리	-8.92729
찬	-8.92734
반전	-8.92815
짜	-8.92878
건가	-8.92905
해야	-8.9295
▁위한	-8.92953
하는데	-8.92982
효	-8.93071
재밋	-8.93157
11	-8.9318
으나	-8.93293
▁간	-8.93359
탈	-8.934
▁1013	-8.93403
▁구성	-8.93443
▁980	-8.93485
p	-8.93751
▁찾	-8.93758
▁감정	-8.93768
▁1026	-8.93772
듯한	-8.93798
▁재미가	-8.93875
청	-8.94033
지루	-8.94036
▁억지	-8.94057
▁절	-8.9406
▁열	-8.94103
▁차	-8.94185
▁선	-8.94365
음악	-8.94822
없고	-8.94822
▁애들	-8.94834
▁것이	-8.94862
▁기억에	-8.94867
▁준	-8.94883
▁929	-8.95007
배우들	-8.95041
▁하나도	-8.95114
▁따라	-8.95137
보단	-8.95247
졌	-8.95347
▁결국	-8.95363
적이	-8.95367
▁933	-8.95383
>	-8.95512
▁타	-8.95547
눈	-8.95775
점을	-8.95783
▁1005	-8.95856
c	-8.9587
▁살아	-8.95879
▁경	-8.96027
▁봤어요	-8.96157
▁ᄏᄏᄏᄏ	-8.96299
봐	-8.96304
▁배우들의	-8.96367
진심	-8.96377
한데	-8.96385
▁924	-8.96445
▁990	-8.96655
ᄋ	-8.96708
인간	-8.96787
▁애니메이션	-8.96808
해라	-8.96843
▁있고	-8.97037
을때	-8.97104
기만	-8.97209
▁지루함	-8.97236
이야기	-8.97463
클	-8.97551
▁초	-8.97561
▁그렇게	-8.97671
제목	-8.97675
▁우리나라	-8.97783
▁볼만	-8.9788
▁어디	-8.97931
기를	-8.98258
이영화	-8.9832
빠	-8.98347
그리고	-8.98381
어야	-8.98398
▁당	-8.98406
▁등	-8.98539
▁모습	-8.98693
▁역사	-8.98707
였음	-8.98848
▁뭔	-8.98874
재미없다	-8.9888
쯤	-8.98979
이지	-8.9901
▁있을	-8.99094
다는	-8.9919
찍	-8.99241
▁눈물이	-8.9938
▁나름	-8.99471
▁단	-8.99531
▁패	-8.99557
줘	-8.99626
:	-8.99659
▁위	-8.99671
정도로	-8.99852
▁같이	-8.99908
▁ᄒ	-9.00036
유치	-9.00172
▁편	-9.00245
▁총	-9.00247
▁많	-9.00269
▁훨씬	-9.0043
▁외	-9.00466
▁없이	-9.00538
▁코믹	-9.0063
l	-9.00635
▁65	-9.00651
훈	-9.0076
▁24	-9.0081
라면	-9.01036
▁""""	-9.01189
▁그저	-9.01213
허	-9.01228
나요	-9.0141
▁배경	-9.01431
▁않는다	-9.01459
u	-9.01632
25	-9.01637
▁무섭	-9.01836
▁영화네요	-9.01843
가족	-9.01848
▁아무	-9.01929
▁지루하고	-9.01941
이라도	-9.01949
년이	-9.02114
▁주연	-9.02166
▁예술	-9.02177
▁엔딩	-9.02234
기가	-9.02366
▁B	-9.02505
끝	-9.02564
▁이름	-9.02571
▁987	-9.0263
▁만화	-9.02697
▁없어	-9.02732
재밌게	-9.02743
이었다	-9.02755
요즘	-9.02824
칠	-9.02981
▁973	-9.03016
원작	-9.03037
70	-9.03049
딱	-9.03144
충	-9.03294
페	-9.03363
_	-9.03367
뜨	-9.03367
▁위해	-9.03383
▁힘들	-9.03611
▁손	-9.03976
▁높	-9.04202
▁나는	-9.04335
▁걍	-9.04468
재밌다	-9.04523
라서	-9.04524
▁감동이	-9.04798
짝	-9.04855
▁90	-9.04952
떨어	-9.04989
▁15	-9.05009
재미없	-9.05025
▁OOO	-9.05125
▁캐스팅	-9.05168
k	-9.05254
막장	-9.05309
아주	-9.05332
▁문제	-9.05365
동안	-9.05377
돌	-9.05488
되고	-9.05549
▁싶	-9.05592
▁비교	-9.05686
더니	-9.05854
▁낮	-9.05857
츠	-9.06019
독	-9.06053
에요	-9.06081
▁지루하다	-9.06108
▁감	-9.06226
▁작가	-9.06275
▁얼굴	-9.063
주의	-9.06341
▁백	-9.064
▁걸작	-9.06528
슨	-9.06674
▁한다	-9.06676
께	-9.06689
%	-9.06786
팔	-9.06789
▁982	-9.06805
아서	-9.06929
▁보여주는	-9.06949
출	-9.07016
▁나도	-9.07038
▁점수	-9.07078
▁않다	-9.07083
▁재밌어요	-9.07129
나오는	-9.07139
,,,	-9.07155
분들	-9.07183
▁ᅮᅮ	-9.07371
감독이	-9.07377
부분	-9.07427
간다	-9.07586
꼭	-9.07612
약	-9.07641
▁마지막에	-9.07654
▁매우	-9.07693
료	-9.07898
▁968	-9.08037
▁호	-9.08118
▁마음	-9.0815
▁치	-9.08164
▁괜찮은	-9.08275
▁상황	-9.08383
있고	-9.08412
▁첨	-9.08533
곳	-9.08549
▁잼	-9.08754
▁기억이	-9.08986
인줄	-9.09004
라니	-9.09183
거리	-9.0921
▁-	-9.0923
▁맘에	-9.09348
필	-9.09365
속에	-9.09386
플	-9.09503
십	-9.09504
▁862	-9.09551
우리	-9.09642
▁연기를	-9.0969
오랜만에	-9.09721
▁993	-9.09764
스럽다	-9.09779
어도	-9.09798
▁보지	-9.09811
▁947	-9.0983
이제	-9.09876
▁안되	-9.099
T	-9.09928
옥	-9.09933
▁생	-9.09989
▁것을	-9.10021
▁없었다	-9.10093
윤	-9.10163
했지만	-9.10205
련	-9.1021
▁96	-9.10213
▁나올	-9.10262
재밌어요	-9.10263
▁자기	-9.10346
▁중국	-9.10416
나오	-9.10546
연출	-9.10571
친	-9.10612
▁976	-9.10671
▁끝나	-9.1111
▁1023	-9.1114
▁나왔	-9.11161
으니	-9.11327
▁머리	-9.11335
15	-9.11378
한번	-9.11395
▁멋있	-9.11546
▁966	-9.11606
▁먹	-9.11624
▁입	-9.11727
▁대해	-9.1173
편이	-9.1183
쉬	-9.11868
▁970	-9.11991
▁자신	-9.12
▁944	-9.12029
▁진심	-9.12045
린다	-9.12067
▁지나	-9.12144
▁1020	-9.12146
▁물	-9.12352
A	-9.12357
▁977	-9.12394
▁몰입도	-9.12524
b	-9.12605
들에게	-9.12631
▁약	-9.12667
▁뿐	-9.12695
▁974	-9.12704
▁봐	-9.12716
▁그만	-9.12785
▁전쟁	-9.12944
하는거	-9.13046
▁자체	-9.13098
^	-9.13157
▁최고다	-9.13265
땜에	-9.1327
근데	-9.13306
▁오래	-9.13389
▁역	-9.13488
▁토	-9.13492
현실	-9.13497
견	-9.13554
들도	-9.13586
▁872	-9.13612
전개	-9.13616
▁잡	-9.13707
▁995	-9.1375
아닌	-9.13753
보기	-9.1383
▁인물	-9.13962
본다	-9.14151
30	-9.14163
갔	-9.14347
▁글	-9.14503
송	-9.14747
왔	-9.14834
션	-9.14835
헐	-9.14842
▁978	-9.14855
놓고	-9.14949
▁코	-9.14995
▁도대체	-9.15084
▁그러	-9.15096
소재	-9.15111
튼	-9.15138
쓰	-9.15148
▁1006	-9.15287
한거	-9.15325
B	-9.15394
▁추	-9.15398
▁솔직히	-9.15444
▁재밌음	-9.15597
S	-9.15679
▁볼만한	-9.15695
▁922	-9.15706
▁주고	-9.15764
▁아님	-9.15842
▁길	-9.15976
ᅲᅲᅲ	-9.16034
▁928	-9.16037
f	-9.16105
w	-9.16194
복	-9.16246
최악	-9.16336
▁867	-9.16378
▁94	-9.16455
슬프	-9.16528
▁로맨스	-9.16533
웃	-9.16565
▁돌	-9.1658
▁996	-9.16691
▁866	-9.1688
전에	-9.16882
낸	-9.17
▁귀	-9.17012
▁마음이	-9.17014
▁965	-9.17038
▁존	-9.17115
노잼	-9.1714
삼	-9.17163
▁꽤	-9.17184
스타	-9.17257
인생	-9.17365
▁좋아요	-9.17373
▁913	-9.1744
▁그나마	-9.17564
▁865	-9.17744
▁전부	-9.17759
▁1019	-9.17791
는건	-9.17866
책	-9.17985
▁허접	-9.18088
▁바로	-9.18118
해주	-9.18135
▁부족	-9.18176
▁884	-9.18193
▁989	-9.18266
▁818	-9.18279
눈물	-9.18355
적이고	-9.184
▁871	-9.18559
▁추억	-9.18561
▁943	-9.18576
▁864	-9.18627
끄	-9.18688
▁감성	-9.18776
▁스릴	-9.18799
을듯	-9.18828
했어요	-9.18931
그래도	-9.19041
▁부분	-9.1927
▁엄마	-9.19336
없음	-9.19359
▁956	-9.19421
▁따	-9.19498
징	-9.19562
곤	-9.19571
덕	-9.19581
▁몰입	-9.19609
할때	-9.19733
▁머	-9.19814
▁1014	-9.2009
케이	-9.20093
봐야	-9.20105
▁영화였다	-9.20122
▁26	-9.20257
지고	-9.20277
▁1009	-9.20369
보다는	-9.20377
아이	-9.20408
▁964	-9.20563
r	-9.20596
▁버	-9.20713
▁877	-9.20741
구요	-9.20779
▁같아요	-9.20805
▁아쉽다	-9.20815
........	-9.20829
쇼	-9.20891
▁925	-9.20935
▁영화중	-9.20942
시키	-9.21085
겠지	-9.2116
▁첫	-9.21193
▁893	-9.21261
▁생각을	-9.21266
▁820	-9.21289
하시	-9.21304
tv	-9.21353
▁웃기	-9.21415
틀	-9.21421
▁더빙	-9.21517
얼	-9.21632
▁알았	-9.21833
▁답답	-9.21846
뭔가	-9.22038
는것	-9.221
목	-9.22122
겁	-9.22125
많이	-9.22323
▁얘기	-9.22328
▁뻔	-9.22528
▁제발	-9.22537
▁같은데	-9.22538
▁그래서	-9.22567
었으면	-9.22664
▁빠	-9.22698
개봉	-9.2273
시간이	-9.22779
변	-9.22803
▁여기	-9.22952
줌	-9.22974
도없고	-9.23048
귀	-9.23071
▁915	-9.23103
숙	-9.23143
땐	-9.23144
립	-9.23386
완	-9.2349
굳	-9.23506
런	-9.23515
▁914	-9.23516
곡	-9.236
▁존재	-9.23643
▁921	-9.23813
▁발연기	-9.23896
어쩌	-9.23916
겟	-9.23971
?"	-9.24021
▁1016	-9.24025
n	-9.24051
▁어느	-9.24127
▁더욱	-9.24134
▁891	-9.24172
▁좋은데	-9.24319
▁사람들이	-9.24337
▁평가	-9.2438
▁보는내내	-9.24458
성이	-9.24473
홍	-9.24507
90	-9.24672
웠	-9.24679
▁갈수록	-9.24712
버리	-9.24865
▁927	-9.24925
응	-9.24979
쪽	-9.24983
흠	-9.24983
▁개인적으로	-9.24987
감동적	-9.25103
▁아이들	-9.25103
▁942	-9.25253
▁약간	-9.25271
차라리	-9.25309
▁분	-9.25393
그런	-9.25429
▁알게	-9.25466
▁대체	-9.25719
▁그대로	-9.2577
▁오늘	-9.26019
▁거의	-9.2605
▁밖에	-9.262
▁있어	-9.2627
▁웃음	-9.26276
헤	-9.26371
싱	-9.26385
▁다큐	-9.26387
▁똥	-9.2648
▁감동도	-9.26526
▁관객	-9.26571
▁저런	-9.26584
h	-9.26629
갑	-9.26791
내용이	-9.26811
흑	-9.2684
익	-9.26856
▁집중	-9.26891
에선	-9.2691
다운	-9.26947
▁당시	-9.26951
들어	-9.27046
다면	-9.27225
보면서	-9.27231
▁봐서	-9.27273
▁855	-9.2728
▁짜	-9.27282
▁비해	-9.2731
밥	-9.2733
같이	-9.27343
하여	-9.27373
▁영상미	-9.27405
건데	-9.27409
▁않았	-9.27464
결말	-9.27466
▁인상	-9.27509
팬	-9.2762
흔	-9.277
▁뒤	-9.27806
▁감동을	-9.27809
▁957	-9.27836
▁준다	-9.27855
같다	-9.2786
▁다음	-9.27861
▁있을까	-9.27919
▁교훈	-9.27952
▁994	-9.27995
▁높은	-9.28161
애들	-9.28168
▁극장에서	-9.28223
▁856	-9.28226
▁888	-9.28231
<	-9.28285
▁883	-9.28442
▁암	-9.28506
혀	-9.28639
인이	-9.2869
▁있지만	-9.28719
▁봤지만	-9.28766
▁딸	-9.2878
▁이딴	-9.28811
▁재밋	-9.28844
▁보니	-9.2889
▁영화임	-9.28957
▁갈	-9.28993
그러	-9.2905
▁950	-9.29083
▁958	-9.29105
놈들	-9.29113
▁장면이	-9.29147
예요	-9.29205
▁새	-9.29312
좋다	-9.29349
▁충격	-9.29429
실망	-9.29435
▁그것	-9.29613
▁내용은	-9.29627
▁된다	-9.29672
축	-9.29734
▁소리	-9.29926
해지는	-9.29932
나도	-9.30186
▁몸	-9.30272
▁짜증나	-9.30315
잼있	-9.30375
편은	-9.30539
▁너	-9.30657
▁805	-9.30673
▁번	-9.30701
▁912	-9.30717
▁875	-9.30721
▁장르	-9.30798
▁정도로	-9.30864
▁재밌고	-9.30896
리가	-9.31099
▁821	-9.31206
도대체	-9.31272
함이	-9.31292
▁969	-9.31313
듬	-9.31379
셨	-9.3141
영화의	-9.31434
▁878	-9.31546
나옴	-9.31575
▁팬	-9.31614
진다	-9.31674
▁934	-9.31697
▁972	-9.31721
▁마음에	-9.31772
▁누가	-9.31796
▁방	-9.31859
사람들	-9.31968
답	-9.31987
되어	-9.32018
잖아	-9.32097
▁악	-9.32107
거나	-9.32114
▁감동적인	-9.32144
▁돌아	-9.32187
▁1008	-9.32274
에겐	-9.32316
▁읽	-9.32336
여서	-9.32418
강추	-9.32547
족	-9.32557
▁911	-9.32559
▁포스터	-9.3262
▁장난	-9.32662
▁판타지	-9.32732
▁미친	-9.32755
▁948	-9.32767
특	-9.32944
했습니다	-9.32968
97	-9.32981
벌	-9.33037
▁여주인공	-9.33081
북	-9.33129
이라면	-9.3313
▁819	-9.33148
▁낮은	-9.33149
good	-9.332
웃음	-9.33202
기억	-9.33213
▁너무나	-9.33232
▁63	-9.33245
▁비디오	-9.3332
럽	-9.33493
▁986	-9.33544
▁858	-9.33658
▁혼자	-9.33736
▁940	-9.33747
겠지만	-9.33813
줘야	-9.34064
오늘	-9.34176
I	-9.34213
▁제작	-9.34228
것같다	-9.34371
▁나와서	-9.34467
찌	-9.34608
써	-9.34689
쿠	-9.34723
습	-9.34737
▁궁금	-9.35001
활	-9.35095
조차	-9.35153
▁믿	-9.35186
애니	-9.3522
▁751	-9.35282
시리즈	-9.35383
혼	-9.35555
년전	-9.35574
하니	-9.35624
▁931	-9.35631
코미디	-9.35658
햇	-9.35675
빵	-9.35714
@	-9.35752
개인적으로	-9.35786
▁그런지	-9.35796
~!!	-9.35827
▁몰	-9.35926
▁재미없는	-9.35954
▁있어서	-9.36075
▁친구	-9.36098
▁모르	-9.36197
▁939	-9.36254
▁아무리	-9.36312
나라	-9.36398
▁1004	-9.36407
▁시대	-9.36527
많은	-9.36581
▁멜로	-9.36649
갖	-9.36697
배우들의	-9.36732
▁올	-9.36774
렌	-9.3679
▁봤음	-9.3679
씩	-9.36934
▁주제	-9.37078
▁806	-9.37169
▁사회	-9.37189
있게	-9.37224
엿	-9.37314
▁CG	-9.37325
▁747	-9.3733
▁992	-9.37337
▁1003	-9.37386
야지	-9.37396
만든	-9.37442
▁959	-9.37453
공포	-9.37483
▁달	-9.37533
받	-9.37551
하던	-9.37624
한마디로	-9.3765
▁재미없음	-9.37692
돼	-9.37698
▁881	-9.37723
▁분들	-9.37762
▁926	-9.37792
안되	-9.37818
▁어이없	-9.37831
킹	-9.3784
▁상당히	-9.37911
▁여주	-9.37955
▁천	-9.37963
▁별점	-9.38087
▁예상	-9.38128
▁자체가	-9.38239
▁않아	-9.38331
순수	-9.38434
▁했는데	-9.3857
▁851	-9.3859
▁쓰레기영화	-9.38807
▁817	-9.3885
▁941	-9.38885
최	-9.38937
▁디	-9.38996
▁모르겠	-9.39029
▁다들	-9.39044
▁나이	-9.39053
수있	-9.39085
주고	-9.39112
우리나라	-9.39135
▁메	-9.39145
▁굉장히	-9.39189
을텐데	-9.39223
감이	-9.39369
끔	-9.39386
▁대단한	-9.39822
아무리	-9.39887
▁보여	-9.39933
롭	-9.3995
O	-9.39959
시대	-9.39965
탕	-9.39973
▁극장판	-9.40047
▁920	-9.40066
뭔	-9.40091
함을	-9.40104
▁59	-9.40322
▁962	-9.40394
▁874	-9.40444
▁세상	-9.4046
혜	-9.40512
봐서	-9.4054
▁가슴이	-9.4064
▁카	-9.40666
▁것도	-9.40714
▁각본	-9.40774
오는	-9.40774
일까	-9.40796
▁955	-9.40892
▁앞	-9.40971
전쟁	-9.40986
속에서	-9.41001
볼만	-9.41115
▁가지고	-9.41129
봣는데	-9.4119
자들	-9.41195
▁같	-9.412
세계	-9.41288
거다	-9.41342
황	-9.41387
마지막에	-9.4148
ᄏᄏᄏᄏᄏ	-9.41532
줬	-9.41683
꾸	-9.4181
▁860	-9.42003
드는	-9.42171
▁극장	-9.42183
초반	-9.4224
▁만점	-9.42257
▁생각하게	-9.42262
~~~~	-9.42333
▁85	-9.42368
자체	-9.42388
▁하지	-9.42398
성을	-9.42426
▁안된다	-9.42501
"""""""	-9.42508
▁50	-9.4256
▁873	-9.42721
▁목소리	-9.42796
▁어색	-9.428
▁되어	-9.42836
추천	-9.42896
앗	-9.43046
▁낫다	-9.43118
▁불쌍	-9.43143
했고	-9.43148
▁포	-9.43212
▁잘못	-9.43222
=	-9.43261
졌다	-9.43274
방송	-9.43366
모든	-9.43367
슴	-9.43376
▁허무	-9.43553
▁재미있다	-9.43581
▁산	-9.43607
▁세계	-9.43658
▁836	-9.43663
▁삶	-9.43678
영상	-9.4371
▁963	-9.43715
▁890	-9.43724
이해	-9.43773
▁존나	-9.43808
염	-9.4382
▁755	-9.4383
낚	-9.43858
도록	-9.43902
▁평점을	-9.4402
혹	-9.44057
고싶다	-9.44231
ᄉ	-9.44378
▁949	-9.44385
▁써	-9.44446
▁813	-9.44451
▁영화라	-9.44538
▁보여주	-9.44544
▁슬픈	-9.44579
▁것은	-9.44645
▁책	-9.44662
▁있는데	-9.44841
멋	-9.44901
엘	-9.4492
▁봐라	-9.44922
놓	-9.44941
▁779	-9.44964
▁사람은	-9.44985
걍	-9.44987
보는데	-9.45048
▁811	-9.4507
▁통	-9.45134
▁754	-9.45278
는걸	-9.45284
동생	-9.45296
영환	-9.45445
됬	-9.45515
▁초반	-9.45528
이냐	-9.45559
보는내내	-9.45593
▁작	-9.45604
▁960	-9.45614
포스터	-9.45633
아깝다	-9.45662
▁재미있는	-9.45682
▁당신	-9.45804
수도	-9.45821
영화다	-9.45861
좋아요	-9.45866
▁교	-9.45874
작가	-9.45886
들과	-9.45947
무비	-9.45948
▁746	-9.46017
▁853	-9.46022
▁봄	-9.46028
영화에	-9.46212
였는데	-9.463
▁나온다	-9.46345
▁꿈	-9.46365
▁769	-9.46529
▁886	-9.46532
▁삼류	-9.46579
슈	-9.46644
▁선택	-9.46678
▁보이	-9.46678
골	-9.46813
손	-9.46815
▁흥행	-9.46863
▁말도	-9.46888
▁영화도	-9.46928
▁영화인데	-9.4695
▁그리	-9.47062
아무	-9.47112
마음	-9.47123
▁독	-9.47134
미국	-9.4718
섹	-9.47224
했으면	-9.47263
▁792	-9.47264
괴	-9.47357
▁시청률	-9.47433
어릴때	-9.4744
조연	-9.47501
▁971	-9.47508
▁만나	-9.47523
▁종	-9.47645
▁70	-9.47689
예전에	-9.4778
쓸	-9.47819
알바	-9.47829
▁떠	-9.4787
▁진행	-9.47898
▁레	-9.47931
▁알아	-9.47975
▁816	-9.48058
▁개연성	-9.48219
▁지루해	-9.48232
▁이번	-9.48245
거냐	-9.4839
▁752	-9.4843
▁그때	-9.48442
▁852	-9.48448
▁훌륭	-9.4846
하는지	-9.48485
맛	-9.48535
▁결말이	-9.4874
하는게	-9.48746
만화	-9.48758
▁키	-9.48827
▁쳐	-9.48846
정신	-9.48849
으며	-9.49012
▁804	-9.49015
내용도	-9.49047
▁색	-9.49074
일이	-9.4908
▁양	-9.49091
봐라	-9.49114
-_-	-9.49195
▁삼	-9.49205
지금까지	-9.4922
나름	-9.49269
OOO	-9.49341
먹고	-9.49371
무섭	-9.49396
▁끝내	-9.49451
▁생각해	-9.4946
머니	-9.49518
제발	-9.4954
▁아쉬운	-9.49588
▁훌륭한	-9.49744
▁있었다	-9.49815
꿀잼	-9.49949
낮	-9.50011
▁그러나	-9.50031
▁연출력	-9.50042
▁사람들은	-9.50093
껏	-9.50181
앙	-9.50181
힌	-9.50181
착	-9.50199
▁812	-9.50201
▁한심	-9.50228
이에요	-9.50289
▁불편	-9.50335
▁노력	-9.50353
하냐	-9.50356
ᄋᄋ	-9.50401
▁의도	-9.50521
럴	-9.50529
▁살인	-9.5057
억지	-9.50596
;;;;	-9.50747
▁새로운	-9.50754
ᄀ	-9.50765
콩	-9.5077
▁말고	-9.50771
E	-9.50777
검	-9.50778
▁빼	-9.5081
▁790	-9.5083
걸까	-9.50866
▁839	-9.5088
▁갑자기	-9.50906
▁진정한	-9.51014
▁신선	-9.51103
▁좋네요	-9.51118
됐	-9.512
당시	-9.51209
▁시절	-9.51259
사람이	-9.51372
나서	-9.51379
규	-9.51382
령	-9.51382
▁868	-9.51392
▁있다는	-9.51453
▁항상	-9.51589
▁맛	-9.51688
보니까	-9.51707
웃기	-9.51759
▁순	-9.51825
흐	-9.5186
똥	-9.51865
▁아까워	-9.51922
▁오랜만에	-9.5194
뻔한	-9.5195
폐	-9.51957
▁809	-9.51994
엄청	-9.51997
▁어디서	-9.5221
▁그게	-9.5222
▁좋겠다	-9.52371
티비	-9.52403
어떻게	-9.52514
▁ᅳ	-9.5255
▁시즌	-9.52567
압	-9.52589
▁750	-9.52608
▁아까움	-9.5261
▁못하는	-9.52701
어렸을때	-9.52766
▁중간에	-9.5277
▁있음	-9.52791
▁느끼	-9.52974
느껴	-9.53007
이라니	-9.53047
하긴	-9.53134
▁방송	-9.53161
놀	-9.53192
x	-9.53211
▁참고	-9.53229
▁910	-9.53297
▁안보	-9.53331
많	-9.53407
▁대단	-9.53444
네여	-9.53458
▁느끼게	-9.53493
▁점점	-9.53553
▁952	-9.53568
캐릭터	-9.53734
났다	-9.53745
우울	-9.53755
▁953	-9.53762
찰	-9.53782
육	-9.5382
쥐	-9.53828
마다	-9.53855
▁807	-9.53883
내인생	-9.53887
빼고	-9.53942
▁없어서	-9.53966
노래	-9.53998
어린	-9.54022
▁흥미	-9.54064
▁넘어	-9.54137
할까	-9.542
▁728	-9.54209
▁713	-9.54245
준다	-9.54491
였습니다	-9.54501
시즌	-9.54508
▁아닌가	-9.54551
휴	-9.54763
▁노잼	-9.54766
가슴	-9.54819
친구	-9.54844
랄	-9.54857
아오	-9.54869
▁756	-9.54901
▁838	-9.54913
▁모르는	-9.54925
한다는	-9.54932
재미도	-9.5501
년도	-9.5502
빌	-9.55026
▁897	-9.55036
▁만족	-9.55099
▁순간	-9.55137
둘	-9.55148
저는	-9.55171
▁복수	-9.55301
년에	-9.55303
▁성우	-9.55339
▁954	-9.55538
▁880	-9.55539
▁줄거리	-9.55561
▁847	-9.55664
▁여배우	-9.55671
▁어른	-9.55679
푸	-9.55703
이것도	-9.55716
▁깨	-9.55768
스릴러	-9.5581
▁편집	-9.55839
▁흥미진진	-9.55841
▁없네	-9.56017
▁여러	-9.56049
▁쓴	-9.5607
억	-9.56135
▁793	-9.56276
▁없을	-9.56287
▁이어	-9.56323
C	-9.5649
암	-9.56508
스토리가	-9.56517
간만에	-9.56588
▁이것	-9.56678
▁859	-9.56707
오빠	-9.5678
▁재밌었다	-9.56841
떡	-9.56973
벨	-9.56973
▁794	-9.56985
▁좋았어요	-9.57006
▁615	-9.57032
▁어린	-9.57044
풍	-9.57124
것을	-9.57126
▁오히려	-9.57245
지않는	-9.57384
소설	-9.57471
▁743	-9.57475
춘	-9.576
콜	-9.57614
뜬금	-9.5762
▁끌	-9.57622
▁물론	-9.57646
세요	-9.57666
문화	-9.57766
▁개그	-9.57783
▁했다	-9.57784
스런	-9.57824
▁감상	-9.57837
▁꺼	-9.58024
▁뭐냐	-9.58112
려는	-9.58161
뜻	-9.58161
시다	-9.58184
주세요	-9.58184
밑에	-9.58203
들고	-9.58216
랐	-9.58251
▁느낄	-9.58442
▁870	-9.58501
▁답	-9.58546
총	-9.58554
▁모습이	-9.58587
든다	-9.58607
분이	-9.58691
▁미화	-9.58702
▁938	-9.58764
▁화면	-9.58773
▁자연	-9.5886
▁영화관에서	-9.58864
갔다	-9.58909
▁질질	-9.58968
리스	-9.59065
▁주인공이	-9.59089
이런영화	-9.59116
답답	-9.59138
▁볼수	-9.59309
▁가치	-9.59386
▁언제	-9.5945
즐	-9.59495
▁뭐가	-9.59513
유쾌	-9.59589
▁네이버	-9.5972
▁200	-9.59738
▁이런영화	-9.59768
▁이후	-9.59916
엄마	-9.60007
,,"	-9.60058
▁뭐야	-9.60072
▁유치	-9.60114
▁질	-9.60176
▁한편	-9.60178
▁나쁜	-9.602
널	-9.60219
▁완벽	-9.60226
--	-9.60295
▁충분히	-9.60332
▁것이다	-9.60338
▁어설픈	-9.60348
▁모르고	-9.60358
▁빛	-9.60383
짱짱	-9.6041
▁같네요	-9.60418
▁나와	-9.60495
▁이정도	-9.6056
▁뭔지	-9.60584
▁초딩	-9.60752
인거	-9.60839
버렸다	-9.60845
찡	-9.60882
▁아쉬움	-9.60884
▁682	-9.60906
▁앞으로	-9.60912
▁만들었다	-9.61075
▁인정	-9.61081
▁감사	-9.61094
▁않을	-9.61109
만으로도	-9.61153
▁알았다	-9.61165
▁수준이	-9.61168
▁안나오	-9.61174
▁먹먹	-9.61311
봉	-9.61348
~^^	-9.61415
것이다	-9.61431
▁적당	-9.61477
▁791	-9.61478
▁이야기를	-9.61503
링	-9.61539
▁ᄍᄍ	-9.61544
샤	-9.61549
▁봤네요	-9.61549
저예산	-9.6155
▁메세지	-9.61551
▁879	-9.61569
▁가는	-9.61606
그래	-9.61646
점짜리	-9.61647
하세요	-9.61667
▁907	-9.6174
때문	-9.61745
▁힘든	-9.61857
▁이영화를	-9.6188
▁온	-9.61882
▁과거	-9.61889
▁아버지	-9.61899
ᄒᄒᄒ	-9.62019
▁부족한	-9.62101
있네	-9.6213
신이	-9.62139
▁787	-9.62191
봅니다	-9.62226
▁815	-9.62284
▁싶었	-9.62402
▁특유의	-9.62412
▁빠져	-9.62459
▁자꾸	-9.6253
▁나의	-9.62645
????	-9.62654
자가	-9.62728
꼬	-9.6275
▁장면은	-9.62767
아름다운	-9.62796
▁했	-9.62824
▁83	-9.62827
▁사랑을	-9.62861
잉	-9.62896
컨	-9.62896
전형적인	-9.62897
▁683	-9.62913
▁요소	-9.62932
▁아쉽	-9.62975
▁심리	-9.63031
시켜	-9.63052
▁됐	-9.63177
쳤	-9.63275
머리	-9.63401
▁885	-9.63402
▁본다	-9.63431
▁숨	-9.63557
▁777	-9.63594
놓은	-9.63617
▁비슷한	-9.63654
끝까지	-9.63666
▁설명	-9.63707
▁b	-9.63708
▁이유	-9.63797
▁보고싶	-9.63826
같아서	-9.6383
재밌음	-9.63861
▁죽음	-9.63943
내는	-9.64086
▁터	-9.64102
▁관계	-9.64144
▁없네요	-9.64151
마저	-9.64164
▁작품이	-9.64204
섬	-9.6426
궁	-9.6426
깔	-9.64261
폰	-9.64261
놨	-9.64261
빠지	-9.64276
▁917	-9.64278
니깐	-9.64279
▁싸	-9.6429
▁믿고	-9.64312
최고다	-9.64378
▁보는데	-9.64441
▁전개가	-9.6447
연기력	-9.64482
있는데	-9.64493
▁이상한	-9.6452
였던	-9.64606
▁좋았고	-9.64633
이면	-9.64721
▁좋음	-9.64872
▁깊은	-9.64951
▁699	-9.64968
엔딩	-9.65003
셔	-9.65029
▁감독님	-9.65092
▁엄청난	-9.65137
▁909	-9.65158
▁멋지	-9.65256
▁풀어	-9.65271
▁죽이	-9.65335
................	-9.65464
기분	-9.6552
주기	-9.65534
X	-9.65645
지금봐도	-9.65658
버리고	-9.6572
공포영화	-9.65722
▁771	-9.6573
으면서	-9.65761
▁알았는데	-9.65764
들만	-9.65764
▁803	-9.65794
드리	-9.65865
▁800	-9.65913
점수	-9.65916
한영화	-9.65983
아놔	-9.66038
▁623	-9.66101
▁목	-9.66154
▁잔잔한	-9.66209
해주는	-9.66293
꼽	-9.66325
세상에	-9.66327
형님	-9.6634
균	-9.66344
▁현	-9.66382
▁무조건	-9.66406
▁나라	-9.66417
스포	-9.66441
했을	-9.66441
▁복	-9.66527
▁괴	-9.66569
▁아직	-9.66588
▁908	-9.66616
한건	-9.66876
지루하고	-9.66878
▁하다	-9.66994
v	-9.67
▁상상	-9.67031
렸다	-9.67049
▁스토리는	-9.67092
▁영화였습니다	-9.67206
대사	-9.6729
▁재밌네요	-9.67323
▁뭐지	-9.67356
▁수가	-9.67373
▁소설	-9.67452
이며	-9.6747
끈	-9.67497
학생	-9.67505
▁태	-9.67565
▁화이팅	-9.67569
달라	-9.67591
독특	-9.67598
▁734	-9.67606
▁786	-9.67623
스터	-9.6767
▁708	-9.67722
겹	-9.67757
좌	-9.67758
▁좋았습니다	-9.67818
던가	-9.6788
▁웃긴	-9.67906
▁크	-9.67913
돌아	-9.67999
받는	-9.68118
▁709	-9.68157
▁대작	-9.68179
던지	-9.68268
▁설	-9.68277
▁망작	-9.68338
▁연출이	-9.68391
▁빨리	-9.68441
전작	-9.68445
롱	-9.68472
▁그닥	-9.68487
▁676	-9.68495
▁황당	-9.68525
▁(	-9.68596
싸	-9.68689
▁사랑이	-9.68695
▁완벽한	-9.6875
▁여운	-9.68758
장난	-9.68836
▁부분이	-9.68851
보게	-9.68871
시절	-9.68887
▁해도	-9.68919
없어	-9.68931
제가	-9.68979
▁578	-9.68983
졸	-9.69062
끝나	-9.69074
번째	-9.69137
짧	-9.69162
멘	-9.69191
꽃	-9.69192
결론	-9.69241
▁95	-9.69257
▁아무것도	-9.69268
▁유머	-9.6931
▁웃겨	-9.69391
더군요	-9.69412
▁받아	-9.69501
확	-9.69509
최악의	-9.69621
100	-9.6965
되지	-9.69744
했어	-9.69747
홍콩	-9.69776
특히	-9.69859
▁재미는	-9.69875
것은	-9.69876
논	-9.69882
웨	-9.69917
▁M	-9.69939
▁배우들이	-9.69971
▁같습니다	-9.70015
쩔	-9.70047
▁넣	-9.70071
▁돈주고	-9.7011
▁댓글	-9.70112
한듯	-9.70175
▁돌려	-9.70179
텐데	-9.70249
로서	-9.70272
찾	-9.70287
▁프로	-9.7029
▁84	-9.70294
▁840	-9.70396
되게	-9.7041
뭐야	-9.70507
!!!!!	-9.70534
전편	-9.70564
나온다	-9.70577
▁투	-9.70623
▁표정	-9.70636
▁727	-9.70645
▁촬영	-9.70646
▁희망	-9.70656
▁못하고	-9.70707
▁합니다	-9.70732
▁전달	-9.70825
▁아들	-9.7084
▁동화	-9.70911
긴장감	-9.70929
떨	-9.71016
보이	-9.71034
▁저질	-9.71136
▁936	-9.71256
욱	-9.71261
▁출	-9.71304
▁성룡	-9.71317
▁또한	-9.71331
▁따뜻한	-9.71334
앤	-9.71382
▁768	-9.71394
연기도	-9.71429
▁옛날	-9.71476
▁참신	-9.7151
려서	-9.71527
아프	-9.71579
▁이리	-9.71591
▁비추	-9.71668
▁857	-9.71749
하는것	-9.71767
재미있게	-9.71809
ᄃᄃ	-9.71826
취	-9.71835
거라	-9.71912
▁생각나	-9.71994
한다면	-9.72021
쏘	-9.72122
옹	-9.72122
턴	-9.72122
▁895	-9.72135
먹는	-9.72237
▁좋았음	-9.72241
▁영화에서	-9.72248
▁벌	-9.72257
▁누구	-9.72266
감독의	-9.72374
아이들이	-9.72395
▁꼬	-9.72417
거같다	-9.72447
▁생각한다	-9.72633
모습	-9.72665
캐	-9.7268
식으로	-9.72716
젤	-9.72736
▁894	-9.72794
▁진실	-9.72854
멍	-9.72855
ᄌ	-9.72864
몽	-9.72865
홀	-9.72869
끼리	-9.72952
▁벗	-9.72976
수록	-9.72977
타임	-9.73056
아직도	-9.73086
보인다	-9.73104
▁무서운	-9.73227
▁그런데	-9.73273
▁778	-9.73298
하자	-9.73401
▁좋은영화	-9.73447
▁765	-9.73453
▁850	-9.73519
▁볼수있	-9.73582
존나	-9.73582
P	-9.7362
농	-9.73621
▁731	-9.73625
드립니다	-9.73654
▁732	-9.73655
▁가득	-9.73665
▁중에	-9.73762
▁황	-9.73808
너무나	-9.7385
하지도	-9.73932
▁자유	-9.74023
▁똑같	-9.74092
▁맞는	-9.74122
▁바라	-9.74156
▁모습을	-9.74157
만드는	-9.74164
▁서로	-9.7423
풀	-9.7425
깨	-9.74254
▁둘	-9.74254
보자	-9.7426
와서	-9.74278
G	-9.74367
▁780	-9.74391
777,	-9.74424
생겼	-9.74431
▁아닐까	-9.74473
재미없음	-9.74572
▁스타일	-9.7458
티비에서	-9.74584
▁849	-9.74592
▁성장	-9.74677
같음	-9.74754
▁왕	-9.74872
▁아빠	-9.74901
▁평점은	-9.74924
▁만드	-9.74946
비슷	-9.7497
▁741	-9.74986
흥	-9.75005
▁억지로	-9.75089
안타깝	-9.75108
깜	-9.75141
▁795	-9.75155
▁742	-9.75173
시고	-9.75209
▁730	-9.75211
별점	-9.75236
▁두번	-9.75243
▁그랬	-9.75246
아쉬	-9.75257
재밋다	-9.75328
여행	-9.75425
절대	-9.75608
▁유치한	-9.75698
▁789	-9.75709
험	-9.75797
엉	-9.75811
걸로	-9.75832
▁휴	-9.75843
M	-9.75886
딸	-9.75888
▁그렇고	-9.75911
더빙	-9.7592
▁행동	-9.75922
▁관심	-9.75979
967,	-9.75983
순간	-9.75983
믿	-9.75999
스럽고	-9.76076
념	-9.76127
종교	-9.7614
따위	-9.76152
▁병맛	-9.76177
▁767	-9.76254
▁않음	-9.76376
▁잔인	-9.76386
점준다	-9.76473
ᄍᄍ	-9.76496
▁문	-9.76549
▁관	-9.76576
▁상영	-9.76593
▁지루하	-9.76612
▁595	-9.76625
▁바람	-9.76661
L	-9.76686
&	-9.76686
▁640	-9.76698
▁실패	-9.76727
978,	-9.76759
▁TV	-9.76771
▁611	-9.76777
람	-9.76782
드라	-9.76824
▁노출	-9.76885
아나	-9.76895
랜	-9.76994
들아	-9.76999
▁하면	-9.77006
▁유명	-9.7701
▁감독은	-9.77079
*	-9.77081
내요	-9.77099
▁않았다	-9.77125
높	-9.77126
▁까	-9.77142
▁프랑스	-9.7731
이유	-9.77368
량	-9.7744
볼수록	-9.7745
ᄆ	-9.77467
땅	-9.77467
▁귀신	-9.77519
성룡	-9.77595
▁흐	-9.776
였어요	-9.77728
▁훨	-9.7778
▁810	-9.77785
▁천재	-9.77844
▁745	-9.77852
볼때마다	-9.78002
랬	-9.78033
▁835	-9.78045
▁국	-9.78049
영화라	-9.78109
▁사건	-9.78122
▁해주는	-9.78152
만으로	-9.78154
▁607	-9.78173
▁808	-9.78202
▁612	-9.78229
때마다	-9.78233
▁869	-9.78273
▁여성	-9.78276
▁싫	-9.78349
무서워	-9.78377
940,	-9.78377
것들	-9.78435
▁끝나고	-9.78546
▁완성도	-9.78639
▁접	-9.7864
인것	-9.78734
▁그래픽	-9.78793
▁영화중에	-9.78829
▁이미	-9.78901
득	-9.78918
▁금	-9.78949
▁신기	-9.78963
▁충분	-9.78992
빡	-9.79048
휘	-9.79048
그럭저럭	-9.79048
▁먼저	-9.79056
▁796	-9.79062
▁814	-9.79064
미친	-9.79065
▁멋	-9.79097
역사	-9.79103
▁창	-9.79108
▁지난	-9.79151
894,	-9.79163
▁결혼	-9.79165
생활	-9.79205
이딴	-9.7923
밤	-9.79286
버렸	-9.79299
에서는	-9.79312
영화중	-9.79381
▁윤	-9.79386
▁해서	-9.79406
▁544	-9.79428
▁죽는	-9.79445
111,	-9.79475
▁848	-9.79502
겠네	-9.7955
▁코메디	-9.79641
연기가	-9.79689
▁멀	-9.79806
▁749	-9.79811
릭	-9.79842
▁느껴지는	-9.79855
▁만들지	-9.79904
373,	-9.79907
공감	-9.79918
▁보았	-9.79931
엄	-9.79997
▁처음으로	-9.80036
생각보다	-9.8005
▁등장	-9.80053
ᅲᅲᅲᅲ	-9.80083
▁904	-9.80139
▁미소	-9.80272
여주인공	-9.80349
짜증나	-9.80481
▁받	-9.80499
▁역대	-9.80511
▁918	-9.8053
계속	-9.8054
았던	-9.80612
▁72	-9.80621
N	-9.80654
챙	-9.80655
453,	-9.80656
565,	-9.80658
504,	-9.80672
832,	-9.80674
737,	-9.80675
459,	-9.80682
▁사이	-9.80684
▁772	-9.80685
541,	-9.80706
▁해준	-9.8071
지루함	-9.8071
빨	-9.80712
▁싫어	-9.8073
아까워	-9.80752
▁성공	-9.80753
어이없	-9.80782
쩌	-9.80821
스가	-9.80898
121,	-9.80914
신선한	-9.80935
나온	-9.80946
킨	-9.80948
로운	-9.81005
▁늘	-9.81044
저도	-9.81107
짜증	-9.81121
▁바보	-9.81129
▁해야	-9.81298
▁인간의	-9.81364
킬	-9.81401
▁듯한	-9.81429
갓	-9.81468
802,	-9.81476
째	-9.81479
뒤	-9.81485
▁729	-9.81492
▁589	-9.81494
644,	-9.815
672,	-9.81501
했는지	-9.81591
나와	-9.81751
추억	-9.81841
▁아닌데	-9.81907
틴	-9.81919
▁757	-9.81945
극장에서	-9.81955
함과	-9.81966
▁616	-9.8197
▁도저히	-9.81973
▁이영화는	-9.81977
그래서	-9.82035
▁괜히	-9.82075
좋고	-9.82115
▁614	-9.82216
▁엉망	-9.82289
면서도	-9.82294
689,	-9.82295
816,	-9.82303
▁619	-9.8233
▁대단하다	-9.82393
▁전설	-9.82446
▁확	-9.82493
▁뒷	-9.8254
▁905	-9.82596
누	-9.82603
학교	-9.82611
▁590	-9.82724
▁618	-9.8273
왔다	-9.82775
▁낭비	-9.82793
소재는	-9.82859
어울리	-9.82899
조금	-9.82919
▁834	-9.82936
▁573	-9.82985
▁처	-9.82995
▁SF	-9.83016
▁664	-9.83036
받은	-9.8304
택	-9.83052
▁에로	-9.83052
▁속편	-9.83058
핵	-9.83103
▁느낀	-9.83114
126,	-9.83157
254,	-9.83165
085,	-9.83168
그저	-9.83182
962,	-9.83228
520,	-9.83284
영화라고	-9.83289
▁673	-9.83305
▁아니면	-9.83323
290,	-9.83337
잠	-9.8339
▁미래	-9.83399
▁571	-9.83497
▁꿀잼	-9.83502
언니	-9.83503
하시는	-9.83551
▁아마	-9.83568
▁떠나	-9.83622
시킨	-9.83645
표현	-9.83686
나고	-9.83775
▁스토리에	-9.83794
▁마음을	-9.83862
▁든다	-9.83863
일뿐	-9.83881
▁624	-9.83886
▁705	-9.83893
덤	-9.83947
579,	-9.84001
918,	-9.84016
▁삶을	-9.84037
뿐이다	-9.84116
스럽	-9.84243
기엔	-9.84263
▁싫다	-9.84301
프로	-9.84313
재미있음	-9.84381
▁799	-9.84393
상을	-9.84411
알바들	-9.84444
an	-9.84485
보내	-9.84511
맥	-9.84577
▁매력이	-9.84601
전혀	-9.84618
▁마무리	-9.84627
한국영화	-9.84681
▁액션영화	-9.84685
▁665	-9.84701
▁688	-9.84719
▁785	-9.84734
939,	-9.84804
▁663	-9.84808
쩐다	-9.8482
164,	-9.84832
▁감탄	-9.84832
▁반전이	-9.84852
686,	-9.84881
516,	-9.84882
▁681	-9.84883
▁몰랐	-9.849
▁후반부	-9.84903
겟다	-9.84949
싸움	-9.85026
▁프로그램	-9.85029
영화로	-9.85041
▁취	-9.85082
▁리메이크	-9.85086
▁712	-9.85118
▁재미있어요	-9.85227
▁기대하고	-9.8524
방식	-9.853
119,	-9.85303
잊	-9.85546
▁흘러	-9.85582
재미있어요	-9.85585
▁누	-9.85592
이건뭐	-9.85605
껄	-9.85635
퇴	-9.85635
▁대한민국	-9.85641
081,	-9.85643
글쎄	-9.85652
571,	-9.85665
받고	-9.8567
179,	-9.85679
903,	-9.85682
매력	-9.85696
079,	-9.85729
078,	-9.85744
따뜻	-9.85761
▁알겠	-9.85783
▁소름	-9.85842
▁캐	-9.85844
▁맥	-9.85847
거임	-9.85849
▁잘만든	-9.85869
▁영화이다	-9.86046
▁700	-9.86049
코드	-9.86104
누가	-9.86142
▁액션도	-9.86185
▁이야기가	-9.86266
하겠	-9.86267
비디오	-9.86286
네이버	-9.86298
여운이	-9.86346
▁명작이다	-9.86355
짜리	-9.86377
▁돋	-9.86382
▁606	-9.86388
▁이하	-9.86472
510,	-9.86487
쩜	-9.86489
폴	-9.8649
▁전기세	-9.86491
051,	-9.86495
907,	-9.86503
527,	-9.86503
368,	-9.8651
354,	-9.8651
▁733	-9.86514
170,	-9.86519
796,	-9.86536
▁잊혀지지	-9.86556
774,	-9.86564
731,	-9.86572
만들어	-9.86573
쾌	-9.86602
867,	-9.86623
있던	-9.86634
여기	-9.86661
결말이	-9.86668
▁그녀	-9.86668
느라	-9.8671
몇	-9.86815
▁포기	-9.86875
er	-9.86916
▁547	-9.87082
▁690	-9.87125
▁유치하고	-9.87139
▁현실성	-9.87154
▁성인	-9.87158
▁580	-9.87181
414,	-9.8721
아픈	-9.8722
or	-9.87252
▁재밌어	-9.87262
아름답	-9.87264
▁재미없고	-9.87333
굴	-9.87337
▁봤었는데	-9.87352
▁봤으면	-9.87352
533,	-9.87354
주연	-9.87359
470,	-9.8736
770,	-9.87365
▁648	-9.87366
209,	-9.87372
▁떨어지는	-9.87388
324,	-9.87413
▁919	-9.87416
926,	-9.87422
178,	-9.87428
971,	-9.87462
▁일상	-9.87479
새끼	-9.87481
▁고민	-9.87597
▁이러	-9.87607
▁취향	-9.8766
스토리도	-9.87674
▁610	-9.87727
038,	-9.87732
줘서	-9.87774
061,	-9.87914
▁보이는	-9.87922
설정	-9.87968
내용은	-9.87981
삶	-9.88032
▁싶어	-9.88045
,,,"	-9.88083
죄	-9.881
▁통해	-9.88109
뭘	-9.88132
TV	-9.88136
▁끝난	-9.88172
▁594	-9.88188
엠	-9.88221
399,	-9.88224
▁와닿	-9.88227
992,	-9.88228
646,	-9.8823
457,	-9.88232
398,	-9.88232
544,	-9.88233
691,	-9.88234
▁586	-9.88235
▁리얼	-9.88246
776,	-9.88284
▁경찰	-9.8831
607,	-9.88338
없네	-9.88342
231,	-9.88352
587,	-9.88352
▁호러	-9.88385
230,	-9.88387
더만	-9.88396
너무너무	-9.88417
맘	-9.88428
930,	-9.88432
811,	-9.88436
800,	-9.88444
웃김	-9.88444
테러	-9.88445
▁역할	-9.88448
노답	-9.88557
855,	-9.88567
695,	-9.88581
▁546	-9.88602
가장	-9.88603
▁실화	-9.88693
312,	-9.88745
랄까	-9.88812
▁774	-9.88872
05,	-9.88876
▁알려	-9.88939
▁935	-9.88995
첨	-9.89023
웅	-9.89026
뮤지컬	-9.89098
659,	-9.891
981,	-9.89101
850,	-9.89107
641,	-9.8911
377,	-9.8911
785,	-9.89117
169,	-9.89127
커플	-9.89135
964,	-9.89153
887,	-9.89174
▁710	-9.8918
▁귀엽	-9.89189
881,	-9.89194
521,	-9.89196
637,	-9.89209
가지고	-9.89213
315,	-9.89219
842,	-9.89227
감동적이고	-9.89233
배경	-9.89236
on	-9.89532
101,	-9.89557
▁로맨틱	-9.89564
▁말하고	-9.89652
▁846	-9.89688
▁엉성	-9.89705
▁처음이다	-9.89732
210,	-9.89833
솔	-9.89966
▁그렇지	-9.89983
857,	-9.89985
369,	-9.89985
048,	-9.9
▁518	-9.9
629,	-9.90005
182,	-9.90008
▁외국	-9.90014
허접	-9.90017
226,	-9.90021
485,	-9.90023
563,	-9.90028
879,	-9.90053
837,	-9.90056
▁괴물	-9.90067
▁분명	-9.90117
701,	-9.9012
보시	-9.90124
ᄏᄏᄏᄏᄏᄏ	-9.90133
있어	-9.90146
947,	-9.90171
▁좋았는데	-9.90198
129,	-9.90203
▁906	-9.90283
▁좀비	-9.90313
▁이런거	-9.90353
▁소재를	-9.90413
▁있었던	-9.90532
▁지금도	-9.90547
같고	-9.90599
▁생각보다	-9.90651
지지	-9.90659
▁갑	-9.90696
322,	-9.90725
늘	-9.90767
302,	-9.90822
▁사기	-9.9083
288,	-9.90837
V	-9.90865
맹	-9.90871
벤	-9.90876
가볍게	-9.90877
력이	-9.90878
292,	-9.90879
528,	-9.90881
874,	-9.90888
473,	-9.90893
988,	-9.90897
432,	-9.90899
055,	-9.909
▁667	-9.90901
▁아름답다	-9.90917
509,	-9.9095
556,	-9.90952
069,	-9.90965
는건지	-9.91015
979,	-9.91054
하면서도	-9.9106
▁보기엔	-9.91094
▁전체	-9.91094
암튼	-9.91114
▁청춘	-9.91128
▁드는	-9.91264
여주	-9.9129
▁그런가	-9.91307
▁범죄	-9.91348
감독님	-9.91356
중국	-9.91387
▁영웅	-9.91395
사실	-9.91489
▁안되고	-9.91565
▁영화보다	-9.91568
▁작품성	-9.91578
빙	-9.91609
360,	-9.91647
▁706	-9.91699
▁680	-9.91717
씨가	-9.91762
썼	-9.91777
낼	-9.91777
(?)	-9.91778
238,	-9.9178
140,	-9.91781
이연걸	-9.91785
681,	-9.9179
841,	-9.91791
792,	-9.91792
413,	-9.91792
367,	-9.91797
068,	-9.91804
083,	-9.91818
666,	-9.91822
762,	-9.91834
035,	-9.91834
596,	-9.91837
380,	-9.91841
▁나왔으면	-9.91858
041,	-9.91863
263,	-9.91869
844,	-9.91876
▁하는데	-9.9189
보지마	-9.91897
090,	-9.91909
한것	-9.91931
배우들이	-9.91942
379,	-9.91942
213,	-9.91989
▁감사합니다	-9.92025
044,	-9.92066
한다고	-9.92082
하려는	-9.92246
896,	-9.92287
▁사는	-9.92344
어제	-9.92378
▁무엇보다	-9.92398
▁725	-9.92418
보긴	-9.92448
479,	-9.92449
▁나에게	-9.92455
려면	-9.92494
143,	-9.92541
139,	-9.92569
897,	-9.92571
▁598	-9.92623
R	-9.92686
꾼	-9.92686
924,	-9.92688
999,	-9.92688
221,	-9.92689
549,	-9.92689
284,	-9.92691
507,	-9.92698
225,	-9.927
536,	-9.92708
지않은	-9.92743
▁582	-9.92746
027,	-9.9275
310,	-9.92771
▁어찌	-9.92779
765,	-9.92783
557,	-9.92786
▁현재	-9.92824
193,	-9.92827
108,	-9.92831
▁이유가	-9.92857
캐스팅	-9.92893
명이	-9.92929
안에	-9.92957
429,	-9.92973
974,	-9.92974
▁원래	-9.92987
▁받았	-9.92989
123,	-9.93022
▁시선	-9.93023
▁같음	-9.93028
▁기분이	-9.93033
812,	-9.93137
▁캐릭터들	-9.93165
▁남는다	-9.93193
▁748	-9.93266
자는	-9.93302
ᄃ	-9.93347
하다니	-9.93352
지마라	-9.93418
▁OST	-9.93435
▁병	-9.93449
402,	-9.93465
▁아니지만	-9.93492
▁자신의	-9.93537
콘	-9.93604
탑	-9.93604
튀	-9.93604
느와르	-9.93604
643,	-9.93605
966,	-9.93606
363,	-9.93606
084,	-9.9361
813,	-9.93613
466,	-9.93614
958,	-9.93615
718,	-9.93617
말이필요없	-9.93623
▁흐름	-9.93624
656,	-9.93624
423,	-9.93662
올해	-9.93665
365,	-9.93666
636,	-9.93668
878,	-9.93671
700,	-9.93672
352,	-9.93672
144,	-9.93672
582,	-9.93676
▁너무나도	-9.93677
938,	-9.937
257,	-9.93702
799,	-9.93704
일단	-9.93707
801,	-9.93709
205,	-9.93711
339,	-9.93714
▁아닌듯	-9.93743
님의	-9.93752
727,	-9.93753
859,	-9.9378
767,	-9.93783
▁보여준	-9.93785
모자	-9.93786
529,	-9.93791
099,	-9.93792
▁있지	-9.93804
시걸	-9.93829
▁609	-9.93833
807,	-9.93835
첫	-9.93902
식이	-9.93926
아님	-9.9394
411,	-9.93952
결국	-9.94
형사	-9.94001
203,	-9.9403
▁실제	-9.94044
▁왜이리	-9.94045
▁703	-9.94106
것만	-9.94136
▁여자가	-9.94185
작가님	-9.94199
▁한계	-9.94216
▁상상력	-9.94245
누나	-9.94299
까진	-9.94318
쓰레기영화	-9.94324
▁더럽게	-9.94345
따라	-9.94357
▁588	-9.94366
에휴	-9.94374
▁지루하지	-9.94398
ᄏᄏᄏᄏᄏᄏᄏᄏᄏᄏᄏᄏᄏᄏᄏᄏ	-9.94418
▁686	-9.94449
시간에	-9.94464
▁753	-9.94468
▁587	-9.94476
헌	-9.94529
웬	-9.94529
꽝	-9.9453
봇	-9.9453
386,	-9.94531
647,	-9.94532
682,	-9.94532
987,	-9.94532
049,	-9.94538
357,	-9.94541
428,	-9.94542
보세요	-9.94548
956,	-9.94549
492,	-9.94553
434,	-9.94554
▁613	-9.94558
218,	-9.94561
567,	-9.94563
353,	-9.94563
089,	-9.94573
975,	-9.94576
//	-9.94591
851,	-9.94596
419,	-9.94616
198,	-9.94635
468,	-9.94637
387,	-9.94647
142,	-9.94647
949,	-9.94653
▁친	-9.94657
으리	-9.94661
603,	-9.94669
094,	-9.9467
수있는	-9.94685
▁불륜	-9.94794
▁귀여운	-9.94859
112,	-9.94904
▁보고싶다	-9.95052
000,	-9.95092
메이	-9.95114
대가	-9.95182
102,	-9.95249
▁798	-9.95288
▁후반	-9.95341
▁902	-9.95345
그리	-9.95365
▁629	-9.9541
다큐멘터리	-9.95464
청소년	-9.95464
486,	-9.95466
854,	-9.95466
665,	-9.95466
168,	-9.95466
396,	-9.95466
575,	-9.95467
667,	-9.95467
933,	-9.95468
848,	-9.95469
923,	-9.95469
▁예쁜	-9.95474
131,	-9.95476
289,	-9.95477
817,	-9.95477
787,	-9.95489
425,	-9.95491
634,	-9.95495
285,	-9.95499
410,	-9.95517
915,	-9.95532
337,	-9.95532
628,	-9.95539
955,	-9.9554
333,	-9.95543
141,	-9.95545
039,	-9.95553
▁올라	-9.9556
706,	-9.95588
통쾌	-9.95591
325,	-9.95597
913,	-9.95607
점준	-9.95609
272,	-9.95615
▁가진	-9.95631
크리스	-9.95666
▁관람	-9.95687
모두	-9.9573
어릴적	-9.95736
▁낚였	-9.95775
▁711	-9.9579
외로	-9.9583
▁능력	-9.9585
쓴	-9.9586
꿈	-9.95861
코믹	-9.95871
▁환상	-9.95929
버려	-9.95939
예전	-9.95973
▁보는게	-9.95998
▁625	-9.96
뛰어난	-9.96066
▁정치	-9.96072
할듯	-9.96132
▁골	-9.96137
▁눈을	-9.96155
655,	-9.96188
나올	-9.96205
▁585	-9.96256
▁701	-9.96276
113,	-9.96284
▁있다면	-9.96316
▁555	-9.96335
650,	-9.96358
ᄂ	-9.96393
틈	-9.96408
틱	-9.96408
547,	-9.9641
639,	-9.96411
▁소름돋	-9.96412
746,	-9.96414
840,	-9.96415
348,	-9.9642
417,	-9.96421
723,	-9.96424
599,	-9.96427
224,	-9.96436
696,	-9.96438
344,	-9.96441
331,	-9.96446
▁살짝	-9.9645
▁중요한	-9.96454
580,	-9.96461
830,	-9.96462
784,	-9.96463
▁좋았	-9.96466
789,	-9.96468
944,	-9.96471
708,	-9.96471
936,	-9.96472
002,	-9.96475
627,	-9.96488
▁범인	-9.96489
227,	-9.9649
948,	-9.96492
929,	-9.96494
042,	-9.96514
093,	-9.96517
082,	-9.96519
307,	-9.96523
839,	-9.96524
676,	-9.96525
407,	-9.96532
905,	-9.96541
했네	-9.96542
343,	-9.96543
525,	-9.96548
▁처음부터	-9.96572
849,	-9.9658
있음	-9.96587
▁제작진	-9.96597
370,	-9.966
▁얼	-9.96605
095,	-9.96639
▁킬링타임용	-9.96642
소장	-9.96695
065,	-9.96707
640,	-9.96762
▁장면에서	-9.96767
▁718	-9.96797
▁재미있고	-9.968
했나	-9.96824
아버지	-9.96837
시키는	-9.96842
▁카메라	-9.96863
▁726	-9.96882
▁못할	-9.96884
다시봐도	-9.96921
▁나서	-9.96951
805,	-9.96963
007	-9.96989
갈수록	-9.96995
▁주인공들	-9.97035
▁어색한	-9.97044
▁근	-9.97089
007,	-9.97102
옛날에	-9.97108
재밌는데	-9.97202
▁ᄒᄒᄒ	-9.97245
▁안하고	-9.97283
얻	-9.97291
021,	-9.97301
▁449	-9.97307
▁617	-9.97308
값	-9.9736
듭	-9.9736
▁슬픔	-9.97361
295,	-9.97362
946,	-9.97363
239,	-9.97364
615,	-9.97368
703,	-9.97372
983,	-9.97372
461,	-9.97373
976,	-9.97374
313,	-9.97375
393,	-9.97378
980,	-9.97379
660,	-9.9738
350,	-9.9738
645,	-9.97383
561,	-9.97384
464,	-9.97429
375,	-9.97436
309,	-9.9744
277,	-9.97441
241,	-9.97448
584,	-9.97454
034,	-9.97454
098,	-9.97458
▁136	-9.975
595,	-9.97551
▁이젠	-9.97568
▁만들어진	-9.97577
▁고생	-9.97595
▁534	-9.97661
출연진	-9.97675
612,	-9.97688
▁왜이렇게	-9.97707
▁569	-9.97731
136,	-9.97735
▁생각합니다	-9.9775
610,	-9.97758
되네요	-9.97764
▁죽어	-9.97764
▁평론가	-9.97765
▁개판	-9.97793
▁548	-9.97794
▁마라	-9.97801
시대를	-9.97841
사회	-9.97852
시나리오	-9.97895
▁490	-9.97899
▁우연히	-9.97947
▁짓	-9.97953
▁느낄수	-9.9805
▁844	-9.98063
▁다소	-9.98073
▁짠	-9.98088
▁필요한	-9.9809
▁중간중간	-9.98159
▁아는	-9.9818
551,	-9.98187
팅	-9.98222
▁스케일	-9.98279
사이	-9.98281
▁저렇게	-9.98321
멸	-9.98322
팀	-9.98322
j	-9.98322
668,	-9.98323
782,	-9.98324
443,	-9.98324
228,	-9.98325
972,	-9.98333
469,	-9.98333
994,	-9.98334
823,	-9.98335
▁605	-9.98336
▁515	-9.98336
401,	-9.98337
388,	-9.98337
917,	-9.98338
299,	-9.98341
503,	-9.98343
578,	-9.98344
▁젊은	-9.98345
900,	-9.98347
017,	-9.98358
▁692	-9.9836
072,	-9.98363
870,	-9.98367
005,	-9.98378
657,	-9.9839
303,	-9.98393
793,	-9.98393
685,	-9.98404
446,	-9.98409
911,	-9.98417
638,	-9.98418
951,	-9.98419
046,	-9.98425
872,	-9.98435
067,	-9.9844
163,	-9.98443
▁붙	-9.98457
▁용서	-9.98458
▁있나	-9.98473
옛날	-9.98484
381,	-9.98489
말도	-9.98501
022,	-9.98507
▁잘봤습니다	-9.98529
969,	-9.98537
용으로	-9.98602
르고	-9.98607
▁액션이	-9.98614
009,	-9.98615
ᄅ	-9.9863
530,	-9.98672
▁틀	-9.98701
▁545	-9.98736
▁최악이다	-9.98736
▁722	-9.98781
묘한	-9.98817
하려	-9.98826
▁그려	-9.98848
▁드라마를	-9.98887
맞추	-9.99007
▁대충	-9.99024
어렸을	-9.99032
▁남아	-9.99096
그다지	-9.99107
▁만든다	-9.99115
▁776	-9.99135
▁896	-9.99136
866,	-9.99144
▁577	-9.99234
F	-9.99282
더라구요	-9.99291
랙	-9.99292
덕분에	-9.99293
669,	-9.99294
845,	-9.99294
디즈니	-9.99294
804,	-9.99294
675,	-9.99294
834,	-9.99294
▁찍은	-9.99295
328,	-9.99295
795,	-9.99295
965,	-9.99295
534,	-9.99295
323,	-9.99296
403,	-9.99296
연예인	-9.99296
힐링	-9.99299
440,	-9.99304
266,	-9.99305
335,	-9.99305
463,	-9.99306
186,	-9.99307
394,	-9.99307
217,	-9.99313
286,	-9.99317
321,	-9.99322
750,	-9.99324
488,	-9.99328
334,	-9.99328
104,	-9.9933
934,	-9.9933
236,	-9.99332
495,	-9.99341
지루하다	-9.99346
▁봐야할	-9.99347
329,	-9.99349
574,	-9.9935
071,	-9.99355
146,	-9.9936
118,	-9.99366
674,	-9.99371
103,	-9.99373
▁가끔	-9.99378
772,	-9.99381
▁581	-9.99386
▁보고나서	-9.99389
▁600	-9.99392
괜찮은	-9.99397
204,	-9.99406
301,	-9.99416
235,	-9.99429
294,	-9.99437
652,	-9.99441
▁평생	-9.99443
▁필요없는	-9.99518
077,	-9.99565
율	-9.99576
해준	-9.99619
오래	-9.99688
▁안됨	-9.99697
▁화가	-9.99714
▁568	-9.99736
▁예고편	-9.99751
접	-9.99766
100,	-9.99827
738,	-9.99849
▁ᄃᄃ	-9.99852
웠다	-9.99888
대체	-9.99901
했다는	-9.99901
잔잔한	-9.99962
편보다	-9.99971
▁재밌었어요	-9.99973
▁많다	-9.99994
▁간만에	-10.0002
066,	-10.0005
넣	-10.0006
최근	-10.001
▁831	-10.0012
나왔	-10.0014
▁보러	-10.0016
▁797	-10.0016
세상	-10.0019
▁나오고	-10.0024
둥	-10.0027
★	-10.0027
선생님	-10.0027
710,	-10.0028
281,	-10.0028
400,	-10.0028
590,	-10.0028
740,	-10.0029
501,	-10.0029
982,	-10.0029
189,	-10.0029
742,	-10.0029
244,	-10.0029
593,	-10.0029
▁눈빛	-10.0029
▁644	-10.0029
560,	-10.0029
553,	-10.003
882,	-10.003
814,	-10.003
▁아름답고	-10.0031
382,	-10.0031
152,	-10.0031
806,	-10.0031
624,	-10.0032
▁634	-10.0033
545,	-10.0033
677,	-10.0034
715,	-10.0034
▁드러	-10.0034
404,	-10.0035
시청자	-10.0035
135,	-10.0035
▁슬프다	-10.0035
▁싸이코	-10.0036
028,	-10.0037
361,	-10.0037
▁441	-10.0037
919,	-10.0038
▁833	-10.0038
045,	-10.0038
인가요	-10.0039
128,	-10.0039
341,	-10.0041
032,	-10.0041
390,	-10.0041
506,	-10.0042
234,	-10.0043
623,	-10.0044
지루해	-10.0045
▁추천합니다	-10.0046
332,	-10.0047
웃겼	-10.0048
831,	-10.0049
608,	-10.0055
▁773	-10.0057
▁49	-10.0064
▁시간낭비	-10.007
▁남주	-10.0071
▁중간	-10.0072
,,,,	-10.0074
▁597	-10.0078
하하하	-10.008
▁스토리를	-10.0081
▁말하는	-10.009
▁했지만	-10.0091
▁우정	-10.0095
사람들이	-10.0098
늙	-10.0099
▁놓	-10.01
점주는	-10.0102
아까운	-10.0102
115,	-10.0105
두고	-10.0107
▁다르	-10.0108
사는	-10.0111
구성	-10.0117
▁448	-10.0118
▁봤다가	-10.0119
아쉽	-10.012
▁게임	-10.012
▁533	-10.012
솔직	-10.0122
▁529	-10.0124
▁재미를	-10.0124
450,	-10.0125
뿌	-10.0126
컷	-10.0126
냉	-10.0126
[	-10.0126
▁여전히	-10.0126
654,	-10.0126
418,	-10.0127
993,	-10.0127
358,	-10.0127
064,	-10.0127
086,	-10.0127
635,	-10.0127
297,	-10.0128
568,	-10.0128
137,	-10.0128
941,	-10.0128
▁784	-10.0128
532,	-10.0128
▁444	-10.0128
600,	-10.0128
688,	-10.0128
756,	-10.0128
▁섹시	-10.0129
822,	-10.0129
▁배우가	-10.013
692,	-10.013
716,	-10.013
374,	-10.013
279,	-10.013
304,	-10.0133
260,	-10.0133
598,	-10.0133
833,	-10.0133
698,	-10.0135
847,	-10.0136
371,	-10.0136
088,	-10.0136
342,	-10.0136
347,	-10.0137
748,	-10.0139
▁연애	-10.014
▁별루	-10.014
875,	-10.0141
011,	-10.0141
154,	-10.0143
364,	-10.0143
456,	-10.0143
901,	-10.0144
▁전체적으로	-10.0145
우와	-10.0145
▁남기	-10.0148
033,	-10.0149
222,	-10.0149
441,	-10.0151
779,	-10.0155
▁어이없는	-10.0155
▁좋았던	-10.0156
013,	-10.0159
▁빨	-10.0166
▁눈이	-10.0169
305,	-10.0176
▁보시길	-10.0184
쓰는	-10.0185
▁내용을	-10.0186
말고	-10.0187
415,	-10.0206
떠	-10.0208
지마	-10.0213
▁높다	-10.0213
당한	-10.0218
▁723	-10.0223
붕	-10.0226
쫌	-10.0226
헐리우드	-10.0226
775,	-10.0226
732,	-10.0227
552,	-10.0227
694,	-10.0227
346,	-10.0227
760,	-10.0227
928,	-10.0227
954,	-10.0227
024,	-10.0227
383,	-10.0228
577,	-10.0228
481,	-10.0228
▁ost	-10.0228
293,	-10.0228
▁574	-10.0228
739,	-10.0229
572,	-10.0229
▁푹	-10.0229
581,	-10.0229
▁452	-10.023
585,	-10.023
▁순수한	-10.0231
616,	-10.0232
150,	-10.0235
522,	-10.0235
159,	-10.0235
821,	-10.0236
648,	-10.0237
하라	-10.0238
171,	-10.0238
950,	-10.0241
▁가능	-10.0242
452,	-10.0245
133,	-10.0245
몰입	-10.0247
▁연기자	-10.0247
704,	-10.0255
▁매력적이	-10.0256
시사회	-10.0257
편을	-10.026
묘	-10.0262
년전에	-10.0263
▁왠지	-10.0268
르는	-10.0276
▁그렇다	-10.0276
닥	-10.0277
▁꼴	-10.028
705,	-10.028
250,	-10.0281
▁크게	-10.0283
몇번을	-10.0285
재밌네	-10.0285
▁다행	-10.0288
▁찍어	-10.0288
▁717	-10.029
면에서	-10.0294
ar	-10.0296
관객	-10.0297
몰	-10.0297
▁그럼	-10.0298
얘기	-10.0299
기다리	-10.0301
몸	-10.0312
최강	-10.0313
▁돈이	-10.0315
▁제가	-10.0319
보려고	-10.0319
킬링타임	-10.0321
▁542	-10.0326
옷	-10.0327
945,	-10.0328
873,	-10.0328
016,	-10.0328
606,	-10.0328
893,	-10.0329
498,	-10.0329
916,	-10.0329
▁916	-10.0329
전문가	-10.033
883,	-10.033
594,	-10.033
602,	-10.033
▁579	-10.033
265,	-10.033
755,	-10.033
188,	-10.033
451,	-10.033
515,	-10.0331
935,	-10.0331
395,	-10.0331
167,	-10.0331
나와서	-10.0332
809,	-10.0332
622,	-10.0335
697,	-10.0335
▁492	-10.0336
215,	-10.0336
237,	-10.0337
▁나를	-10.0338
754,	-10.0339
626,	-10.0339
▁과연	-10.0339
454,	-10.0339
539,	-10.0339
▁필요없다	-10.0339
▁사람을	-10.034
405,	-10.0345
397,	-10.0345
▁못보	-10.0346
300,	-10.0352
125,	-10.0355
497,	-10.0356
▁그들의	-10.0356
206,	-10.0359
로드	-10.0359
굿굿	-10.0364
597,	-10.0364
스토리는	-10.0368
▁cg	-10.0369
아이돌	-10.0376
▁626	-10.0376
▁기본	-10.0376
192,	-10.0392
▁풀	-10.0398
괜찮	-10.04
봐요	-10.0401
▁-_-	-10.0401
▁남을	-10.0405
좋은영화	-10.0407
436,	-10.041
▁폭	-10.0413
벽	-10.042
항	-10.042
제작	-10.0422
덜	-10.0423
분위기	-10.0425
719,	-10.0426
256,	-10.0427
CG	-10.0429
어떤	-10.0429
낙	-10.0429
례	-10.0429
씹	-10.0429
▁압권	-10.0429
493,	-10.043
499,	-10.043
287,	-10.043
766,	-10.043
389,	-10.043
누군가	-10.043
히어로	-10.043
252,	-10.043
853,	-10.0431
633,	-10.0431
953,	-10.0431
985,	-10.0431
884,	-10.0431
▁740	-10.0431
269,	-10.0431
942,	-10.0431
▁603	-10.0431
▁523	-10.0432
543,	-10.0432
736,	-10.0433
889,	-10.0433
758,	-10.0434
445,	-10.0434
075,	-10.0436
625,	-10.0436
537,	-10.0437
412,	-10.0439
730,	-10.0442
냈	-10.0443
▁영화지만	-10.0443
569,	-10.0444
▁그림	-10.0446
급영화	-10.045
752,	-10.0451
주제	-10.0455
도아니고	-10.0456
에대한	-10.0458
극장	-10.0461
영화임	-10.0461
▁나중에	-10.0467
▁있으면	-10.0469
워서	-10.0471
▁연기력이	-10.0472
쳤다	-10.0475
613,	-10.0477
뭐지	-10.0477
▁62	-10.0478
▁스토리와	-10.0479
▁묘사	-10.0479
▁평범한	-10.048
712,	-10.048
▁귀엽고	-10.0491
▁제작비	-10.0491
탁	-10.0493
▁549	-10.0497
세기	-10.0499
▁몰입이	-10.0504
▁의문	-10.0508
수없는	-10.0514
▁404	-10.0516
▁685	-10.0519
▁596	-10.0522
폭	-10.0522
▁539	-10.0527
961,	-10.053
힐	-10.0532
낳	-10.0532
]	-10.0532
480,	-10.0533
743,	-10.0533
180,	-10.0533
538,	-10.0533
175,	-10.0533
326,	-10.0533
249,	-10.0533
줍니다	-10.0533
▁리뷰	-10.0533
기대안하고	-10.0533
▁아저씨	-10.0533
259,	-10.0533
678,	-10.0534
684,	-10.0534
989,	-10.0534
564,	-10.0534
275,	-10.0534
576,	-10.0534
720,	-10.0535
693,	-10.0535
366,	-10.0535
733,	-10.0535
283,	-10.0535
050,	-10.0536
535,	-10.0536
617,	-10.0537
▁인기	-10.0538
601,	-10.0539
336,	-10.0539
▁677	-10.054
421,	-10.054
702,	-10.0541
져서	-10.0541
649,	-10.0541
435,	-10.0541
895,	-10.0542
995,	-10.0542
▁나가	-10.0542
106,	-10.0543
▁770	-10.0543
759,	-10.0544
513,	-10.0544
몇번	-10.0546
▁이쁜	-10.0546
▁화려한	-10.0547
148,	-10.0549
▁젤	-10.0551
언제	-10.0555
056,	-10.0558
▁사극	-10.0562
갑니다	-10.0567
▁짜증나는	-10.0573
097,	-10.0575
자리	-10.058
하려고	-10.0584
처음엔	-10.0585
912,	-10.0591
▁낫	-10.0591
시작	-10.0594
110,	-10.0594
▁마치	-10.0594
683,	-10.0596
▁620	-10.0597
아이들	-10.0598
죽는줄	-10.0603
이정도면	-10.0604
▁543	-10.0604
008,	-10.0606
▁C	-10.061
▁391	-10.0611
▁반성	-10.0614
킬링타임용으로	-10.0617
▁시간을	-10.0619
가슴이	-10.062
▁단순	-10.0621
114,	-10.0628
▁641	-10.0629
▁잼있게	-10.0631
옛	-10.0633
멍청	-10.0634
▁묻	-10.0634
평가	-10.0635
▁638	-10.0637
탐	-10.0637
헛	-10.0637
489,	-10.0637
314,	-10.0637
496,	-10.0637
922,	-10.0637
037,	-10.0637
047,	-10.0638
886,	-10.0638
376,	-10.0638
▁희생	-10.0638
▁788	-10.0638
134,	-10.0639
963,	-10.0639
오브	-10.064
542,	-10.0641
219,	-10.0642
▁덜	-10.0643
▁198	-10.0643
330,	-10.0644
맞아	-10.0644
248,	-10.0644
얘	-10.0645
151,	-10.0645
273,	-10.0645
749,	-10.0645
540,	-10.0646
195,	-10.0646
165,	-10.0649
764,	-10.0649
914,	-10.0649
087,	-10.0649
찌질	-10.065
자고	-10.065
철학	-10.0651
158,	-10.0651
벌써	-10.0651
좋아하는데	-10.0653
나가는	-10.0656
▁657	-10.0656
661,	-10.0659
▁매력적인	-10.0666
재미없어	-10.0669
▁느꼈	-10.0669
▁열정	-10.067
실력	-10.0671
버리는	-10.0679
003,	-10.0679
▁못했다	-10.0684
뭐냐	-10.0686
▁생각나는	-10.0686
다큐	-10.0688
092,	-10.0688
573,	-10.069
▁좋을	-10.0692
▁춤	-10.0693
▁494	-10.0694
▁오버	-10.0694
왠	-10.0694
아이가	-10.0694
▁정서	-10.0697
보고싶	-10.0703
하는건	-10.0711
▁되었다	-10.0711
▁재미없어	-10.072
▁그걸	-10.0721
형제	-10.0722
렉	-10.0724
온다	-10.0725
좋아하는	-10.0726
했으나	-10.0731
끌	-10.0733
▁698	-10.0735
껴	-10.074
떄	-10.0742
텔	-10.0742
톰	-10.0742
609,	-10.0742
856,	-10.0742
524,	-10.0742
쵝오	-10.0742
518,	-10.0742
▁바뀌	-10.0742
465,	-10.0742
308,	-10.0743
253,	-10.0743
더러운	-10.0743
968,	-10.0743
998,	-10.0744
062,	-10.0744
▁487	-10.0745
340,	-10.0745
757,	-10.0745
735,	-10.0745
619,	-10.0745
▁584	-10.0745
491,	-10.0745
864,	-10.0746
384,	-10.0747
690,	-10.0748
433,	-10.0748
280,	-10.0749
296,	-10.075
952,	-10.0751
밑	-10.0751
973,	-10.0751
467,	-10.0752
932,	-10.0753
▁없지만	-10.0753
827,	-10.0754
306,	-10.0754
문제	-10.0755
199,	-10.0755
픈	-10.0756
043,	-10.0758
▁올리	-10.0762
▁해피엔딩	-10.0766
▁다만	-10.0768
444,	-10.0769
825,	-10.0769
107,	-10.0769
처음부터	-10.0772
010,	-10.0773
▁돌아가	-10.0778
▁너무너무	-10.0779
014,	-10.0781
▁허접한	-10.0781
▁841	-10.0785
자체가	-10.0788
▁쓰래기	-10.0794
▁무섭다	-10.0796
▁491	-10.0797
으로서	-10.0802
원작을	-10.0812
▁부르	-10.0813
▁고전	-10.0816
▁생각하는	-10.0818
스릴	-10.082
▁556	-10.0822
▁832	-10.0828
▁517	-10.0835
▁이기	-10.084
▁못해	-10.0842
셀	-10.0848
시트콤	-10.0848
이었습니다	-10.0848
아줌마	-10.0848
427,	-10.0848
642,	-10.0848
264,	-10.0849
184,	-10.0849
991,	-10.0849
161,	-10.0849
057,	-10.0849
▁나머지	-10.0849
116,	-10.0849
997,	-10.085
559,	-10.085
359,	-10.085
835,	-10.085
502,	-10.085
059,	-10.085
514,	-10.085
372,	-10.085
▁583	-10.0851
214,	-10.0852
▁있습니다	-10.0852
794,	-10.0855
258,	-10.0855
378,	-10.0855
004,	-10.0855
898,	-10.0856
508,	-10.0856
▁몰라도	-10.0856
959,	-10.0857
960,	-10.0859
778,	-10.0861
430,	-10.0862
591,	-10.0862
921,	-10.0863
771,	-10.0863
▁재밌었는데	-10.0864
902,	-10.0865
356,	-10.0865
753,	-10.0866
▁포장	-10.0867
201,	-10.0868
815,	-10.0869
076,	-10.0869
190,	-10.0869
▁음악이	-10.0869
711,	-10.087
829,	-10.0871
200,	-10.0871
▁떠나서	-10.0872
▁이런걸	-10.0873
▁졸라	-10.0876
▁느끼는	-10.0878
▁만들고	-10.0878
▁비극	-10.0878
725,	-10.088
보지	-10.0882
▁보지마세요	-10.0882
▁풍	-10.0883
시길	-10.0885
영상미	-10.0889
영화관에서	-10.0893
지도않고	-10.0893
사람은	-10.0895
▁540	-10.0895
영화보다	-10.0898
▁연기와	-10.0898
관계	-10.09
▁달리	-10.0905
▁엄	-10.0916
오글	-10.0922
▁845	-10.0922
장면이	-10.0942
117,	-10.0948
▁538	-10.0951
▁572	-10.0953
어처구니	-10.0956
ᅡ	-10.0956
김기덕	-10.0956
▁843	-10.0956
478,	-10.0956
818,	-10.0956
717,	-10.0956
462,	-10.0956
604,	-10.0956
906,	-10.0957
798,	-10.0957
▁홍보	-10.0957
699,	-10.0957
892,	-10.0957
426,	-10.0957
▁666	-10.0957
060,	-10.0957
▁576	-10.0958
▁735	-10.0958
345,	-10.0959
931,	-10.0959
439,	-10.0961
▁유쾌한	-10.0961
768,	-10.0961
▁개인	-10.0962
181,	-10.0963
588,	-10.0963
173,	-10.0963
157,	-10.0964
036,	-10.0964
▁메시지	-10.0966
▁악당	-10.0966
▁빠져들	-10.0966
▁생생	-10.0967
▁재밌었음	-10.0969
860,	-10.0976
▁않게	-10.0981
▁재미있었다	-10.0981
▁소재로	-10.0981
728,	-10.0985
797,	-10.0988
괜찮았	-10.099
부족	-10.0992
001,	-10.0992
▁좋아서	-10.0994
예술	-10.0997
▁다운받	-10.1002
로써	-10.1004
070,	-10.1005
되서	-10.1007
019,	-10.1012
▁좋겠	-10.1017
빨리	-10.1017
살인	-10.1024
닌	-10.1031
줄이야	-10.1034
스러움	-10.1035
어휴	-10.1038
▁아깝지	-10.1038
▁표현한	-10.1041
810,	-10.1052
▁저도	-10.106
▁않나	-10.1061
설마	-10.1063
▁384	-10.1064
447,	-10.1065
862,	-10.1065
392,	-10.1065
734,	-10.1065
276,	-10.1065
▁자극	-10.1066
663,	-10.1066
무엇을	-10.1066
243,	-10.1067
526,	-10.1067
722,	-10.1067
957,	-10.1067
▁527	-10.1067
240,	-10.1068
761,	-10.1068
242,	-10.1068
422,	-10.1068
783,	-10.1068
▁762	-10.1069
828,	-10.1069
▁622	-10.1073
▁697	-10.1073
▁연결	-10.1074
▁느껴지	-10.1074
483,	-10.1074
122,	-10.1077
925,	-10.1078
127,	-10.1079
▁굳이	-10.1082
555,	-10.1084
124,	-10.1091
큰	-10.1103
519,	-10.1103
630,	-10.1103
511,	-10.1104
▁인간들	-10.1108
194,	-10.1109
싶은데	-10.1112
▁ᄉᄇ	-10.1117
▁그래	-10.1117
020,	-10.1125
애들이	-10.1127
▁열심히	-10.1133
편의	-10.1136
나타	-10.1145
▁552	-10.1153
611,	-10.1154
▁505	-10.1162
▁무지	-10.1162
협	-10.1163
▁같아	-10.1166
획	-10.117
보지마라	-10.1171
780,	-10.1172
드럽게	-10.1174
846,	-10.1175
477,	-10.1175
751,	-10.1175
짝퉁	-10.1175
890,	-10.1176
349,	-10.1176
▁775	-10.1176
187,	-10.1177
472,	-10.1177
836,	-10.1177
726,	-10.1179
517,	-10.1179
096,	-10.1179
▁공감이	-10.118
▁있어요	-10.118
▁겁나	-10.118
▁소녀	-10.1181
모르게	-10.1181
232,	-10.1184
631,	-10.1184
819,	-10.1186
318,	-10.1186
620,	-10.1187
▁낮아서	-10.1188
554,	-10.1189
▁군대	-10.1192
▁모든게	-10.1194
653,	-10.1196
배우가	-10.1196
▁맘	-10.12
▁없나	-10.1201
집니다	-10.1206
ᅲᅮ	-10.1206
▁656	-10.1208
▁무서웠	-10.1215
더라도	-10.1215
놔	-10.1223
게임	-10.1226
▁357	-10.1228
▁죄	-10.1233
▁의심	-10.1235
▁많아	-10.1236
학년	-10.1239
▁떨어지	-10.124
▁말할	-10.1243
▁재밋게	-10.1243
정상	-10.1247
되면	-10.125
▁다시봐도	-10.1255
▁역시나	-10.1257
▁현대	-10.1269
쓰고	-10.1271
릿	-10.1273
▁살리	-10.1274
▁결말도	-10.1279
▁557	-10.1279
밝	-10.1285
샘	-10.1285
476,	-10.1286
282,	-10.1286
937,	-10.1286
868,	-10.1286
338,	-10.1286
058,	-10.1287
680,	-10.1287
885,	-10.1287
▁더이상	-10.1287
416,	-10.1287
233,	-10.1287
▁강렬	-10.1288
278,	-10.1288
▁이유는	-10.1288
320,	-10.129
773,	-10.1293
183,	-10.1295
132,	-10.1296
~~~~~~~	-10.1296
거면	-10.1299
054,	-10.13
745,	-10.13
208,	-10.13
531,	-10.1301
482,	-10.1302
632,	-10.1302
838,	-10.1303
▁전투	-10.1304
▁633	-10.1305
826,	-10.1305
871,	-10.1307
▁팬이	-10.1307
618,	-10.1308
909,	-10.1309
학교에서	-10.1309
흘	-10.1314
▁어린이	-10.1315
잔잔하고	-10.1317
029,	-10.1324
▁자막	-10.1325
야할	-10.1326
▁평점에	-10.1337
꼴	-10.1338
꽤	-10.1339
605,	-10.1348
약간	-10.1351
▁뇌	-10.1353
063,	-10.1357
420,	-10.1359
멋진	-10.1359
▁미치	-10.1366
▁연기에	-10.1369
마리	-10.1384
보이는	-10.1386
▁일본영화	-10.139
030,	-10.1392
▁766	-10.1392
았음	-10.1393
잤	-10.1394
겉	-10.1398
칙	-10.1398
떼	-10.1398
803,	-10.1398
786,	-10.14
362,	-10.14
귀여워	-10.14
무언가	-10.14
053,	-10.14
147,	-10.1401
460,	-10.1401
562,	-10.1401
671,	-10.1402
▁400	-10.1402
523,	-10.1404
겁니다	-10.1405
▁악역	-10.1406
145,	-10.1406
▁530	-10.1408
▁잊지	-10.1408
▁일단	-10.1409
▁되지	-10.1409
▁분노	-10.141
re	-10.1412
080,	-10.1412
448,	-10.1412
904,	-10.1413
006,	-10.1414
보는게	-10.1415
409,	-10.1415
391,	-10.1415
하신	-10.1418
▁54	-10.142
255,	-10.1421
▁721	-10.1422
복잡	-10.143
155,	-10.1432
버림	-10.1433
역대	-10.1435
ᄏᄏᄏᄏᄏᄏᄏ	-10.1437
앞으로	-10.1437
누구	-10.145
▁있으	-10.1457
▁차이	-10.1457
▁160	-10.1458
▁무협	-10.1459
예고편	-10.146
109,	-10.1461
돋	-10.1461
▁몰입감	-10.1462
▁443	-10.1471
젠	-10.1478
▁많았	-10.1479
▁반전도	-10.1483
▁639	-10.1486
됐다	-10.1499
138,	-10.1499
546,	-10.1501
▁668	-10.1502
▁524	-10.1504
▁550	-10.1504
닝	-10.1511
▁이쁘고	-10.1511
털	-10.1511
롤	-10.1511
뽑	-10.1511
컬	-10.1511
▁어려운	-10.1512
▁채널	-10.1512
437,	-10.1512
475,	-10.1512
621,	-10.1512
177,	-10.1512
614,	-10.1512
261,	-10.1512
658,	-10.1512
▁아름다움	-10.1512
185,	-10.1513
891,	-10.1514
052,	-10.1514
869,	-10.1514
▁691	-10.1516
필름	-10.1516
788,	-10.1517
220,	-10.1518
351,	-10.1518
▁볼거리	-10.1519
보고나면	-10.1521
500,	-10.1522
865,	-10.1522
216,	-10.1523
908,	-10.1525
721,	-10.1525
▁확실히	-10.1525
▁설레	-10.1528
877,	-10.1532
▁재밌는데	-10.1534
아빠	-10.154
073,	-10.1542
▁500	-10.1547
그만	-10.1548
is	-10.1551
▁싸구려	-10.1553
레알	-10.1575
하구	-10.1578
910,	-10.1581
완벽	-10.1582
재미없어요	-10.1585
재밌어	-10.1602
025,	-10.1604
여배우	-10.1607
ᄒᄒᄒᄒ	-10.1613
in	-10.1614
스러웠	-10.1617
▁두고	-10.1617
▁작품이다	-10.162
▁459	-10.1623
픽	-10.1624
K	-10.1626
▁비주얼	-10.1626
984,	-10.1627
176,	-10.1627
763,	-10.1628
977,	-10.1628
317,	-10.1628
211,	-10.1628
130,	-10.1629
▁675	-10.1629
769,	-10.1629
566,	-10.1633
!!!!!!!!!	-10.1633
790,	-10.1634
▁반복	-10.1634
245,	-10.1636
270,	-10.1637
▁재밌습니다	-10.1637
747,	-10.1638
251,	-10.1639
라이언	-10.1641
920,	-10.1644
▁다시한번	-10.1644
▁끌어	-10.1649
172,	-10.1652
▁그린	-10.1663
▁딴	-10.1667
적이다	-10.1668
명의	-10.1668
으로써	-10.1668
▁455	-10.1674
820,	-10.1677
▁독립영화	-10.1677
▁눈물을	-10.1678
▁조폭	-10.1679
센	-10.1681
딴	-10.1682
▁659	-10.1683
▁그렇다고	-10.1685
▁사랑에	-10.1691
120,	-10.1695
초딩	-10.1703
낫	-10.1704
그렇게	-10.1705
지루한	-10.1709
▁451	-10.1712
평점에	-10.1713
012,	-10.1717
듣	-10.1718
몰라	-10.172
오락	-10.1723
▁604	-10.1727
감독은	-10.173
▁323	-10.1732
▁원작을	-10.1733
꿀	-10.1733
▁447	-10.1739
▁받을	-10.1741
조아	-10.1741
찜	-10.1743
880,	-10.1743
808,	-10.1743
589,	-10.1743
2014	-10.1743
861,	-10.1744
570,	-10.1745
327,	-10.1745
927,	-10.1746
▁602	-10.1747
040,	-10.1747
791,	-10.1748
160,	-10.1748
▁389	-10.1749
670,	-10.1751
586,	-10.1751
943,	-10.1753
▁엉성한	-10.1754
424,	-10.1755
408,	-10.1755
899,	-10.1757
512,	-10.1759
207,	-10.1767
▁아쉽네요	-10.1767
▁진부한	-10.1768
▁생각하고	-10.1771
마음이	-10.1772
▁좋습니다	-10.1775
잡고	-10.1777
▁투자	-10.1779
319,	-10.1783
하지마라	-10.1788
015,	-10.1791
▁늘어	-10.1795
▁진심으로	-10.1795
▁않지만	-10.1796
▁인생을	-10.1804
▁유치함	-10.1805
▁죽여	-10.1814
개그	-10.1814
▁언제나	-10.1824
고싶은	-10.1827
았습니다	-10.1829
관람	-10.1834
▁영화관	-10.1836
▁가져	-10.1836
▁591	-10.1836
겠어요	-10.1838
091,	-10.1844
행복	-10.1844
▁있어야	-10.1848
455,	-10.1849
감을	-10.1849
▁764	-10.1852
▁553	-10.1853
졸작	-10.1854
▁608	-10.1854
▁693	-10.1855
여름	-10.1857
▁어쩔	-10.1858
자나	-10.1859
헐리웃	-10.186
혈	-10.186
본방사수	-10.186
592,	-10.1861
298,	-10.1862
주성치	-10.1862
▁좋아할	-10.1862
247,	-10.1863
▁심심	-10.1863
166,	-10.1865
031,	-10.1867
484,	-10.1868
▁결과	-10.1868
262,	-10.1868
471,	-10.1868
274,	-10.1869
▁525	-10.1872
744,	-10.1873
스타일	-10.1876
▁남녀	-10.1877
▁시각	-10.1877
406,	-10.1878
사건	-10.1879
▁장면들	-10.1879
ᄍᄍᄍ	-10.188
▁믿을	-10.1885
▁이영화가	-10.1887
라지만	-10.1892
▁불러	-10.1899
▁과정	-10.1909
방금	-10.1913
212,	-10.1914
프리	-10.1916
▁음악도	-10.1918
▁628	-10.192
▁나왔다	-10.1925
긴한데	-10.193
970,	-10.1941
살아	-10.1952
어설픈	-10.1956
개연성	-10.1957
뉴	-10.1959
▁긴장	-10.196
정화	-10.1963
▁이해하기	-10.1968
겠습니다	-10.1968
▁417	-10.1969
낭	-10.1973
▁536	-10.1973
▁439	-10.1973
▁481	-10.1976
룩	-10.1979
초등학생	-10.1979
기독교	-10.1979
마이너스	-10.1979
271,	-10.198
포인트	-10.198
018,	-10.198
마이클	-10.1981
ing	-10.1981
▁645	-10.1981
▁488	-10.1982
438,	-10.1982
▁경험	-10.1982
863,	-10.1982
했네요	-10.1982
876,	-10.1983
▁482	-10.1984
▁아픔	-10.1984
355,	-10.1985
잠깐	-10.1985
487,	-10.1986
▁폭력	-10.1987
젠장	-10.1988
하기만	-10.1989
713,	-10.1991
153,	-10.1994
662,	-10.1994
858,	-10.1996
▁사랑이야기	-10.1998
149,	-10.1998
156,	-10.2003
▁10277	-10.2005
▁남겨	-10.2008
▁부족하다	-10.2009
558,	-10.2011
숨	-10.2014
▁하루	-10.2016
▁동물	-10.2017
원래	-10.2021
▁등장인물	-10.2023
그대로	-10.2029
▁보았다	-10.2036
해주세요	-10.2037
줬다	-10.204
▁507	-10.2044
해진	-10.2051
재밋어요	-10.2055
▁456	-10.2058
더라면	-10.2059
까요	-10.206
▁627	-10.2061
▁발전	-10.2063
친다	-10.2067
▁재미없네	-10.207
▁720	-10.2071
▁647	-10.2074
▁531	-10.2084
▁450	-10.2084
▁말을	-10.2085
▁보여준다	-10.2085
▁퀄리티	-10.2087
▁국민	-10.2089
▁애들이	-10.2092
▁554	-10.2093
녹	-10.2096
▁즐겁게	-10.21
렁	-10.21
렷	-10.21
쩝	-10.21
687,	-10.21
843,	-10.21
431,	-10.21
724,	-10.21
679,	-10.21
▁표절	-10.2101
996,	-10.2101
490,	-10.2101
449,	-10.2102
▁661	-10.2102
223,	-10.2103
ᄃᄃᄃ	-10.2104
▁380	-10.2104
714,	-10.2108
074,	-10.2109
고양이	-10.2109
741,	-10.211
재미잇	-10.2111
▁259	-10.2112
196,	-10.2113
▁액션은	-10.2123
촌	-10.2124
아직	-10.2132
모르겠	-10.2134
▁볼게	-10.2134
앞에	-10.2139
▁심장	-10.2149
와우	-10.2151
▁좋았을	-10.2153
▁망한	-10.2153
▁끝나는	-10.2156
▁내려	-10.2161
큐	-10.2162
311,	-10.2164
감정	-10.2166
야한다	-10.2168
▁영화에요	-10.2169
▁기대를	-10.2171
주면	-10.2172
달달	-10.2176
▁뒤로	-10.2181
▁유치하	-10.2184
빛	-10.2184
켜	-10.2187
꼬마	-10.22
▁442	-10.22
▁684	-10.2206
▁702	-10.2206
▁489	-10.2208
▁386	-10.2212
텐	-10.2213
진정한	-10.2216
▁인상적이	-10.2217
젊	-10.2219
잭	-10.2221
ᅩ	-10.2222
▁슬펐	-10.2222
닙	-10.2222
`	-10.2222
외계인	-10.2222
▁오글거리	-10.2223
385,	-10.2224
▁어렵	-10.2225
291,	-10.2226
229,	-10.2226
▁662	-10.2227
986,	-10.2227
▁522	-10.2228
781,	-10.2228
▁북한	-10.2229
▁마세요	-10.2229
▁빼고는	-10.223
▁연출도	-10.2232
▁570	-10.2234
▁주변	-10.2235
▁없는데	-10.2238
707,	-10.2239
▁보고싶은	-10.224
딩	-10.2241
▁광고	-10.2242
197,	-10.2243
246,	-10.2245
상황	-10.2246
▁여자들	-10.2249
▁지루할	-10.2249
혼자	-10.225
442,	-10.2251
▁들었다	-10.2254
▁싶네요	-10.2269
어릴	-10.2273
있어서	-10.2274
▁배우의	-10.2275
▁보며	-10.2276
재미있다	-10.2278
▁이후로	-10.228
▁썩	-10.2282
시리즈중	-10.2283
▁칼	-10.2298
▁주인공의	-10.2302
님들	-10.2303
개념	-10.231
▁볼만하다	-10.2312
어색	-10.2314
♥♥	-10.2316
하셨	-10.2328
▁381	-10.2331
시대에	-10.2334
줄알았	-10.2337
탄탄한	-10.2341
납	-10.2342
롯	-10.2345
H	-10.2345
깎	-10.2345
러닝타임	-10.2345
포르노	-10.2345
▁불구하고	-10.2345
▁360	-10.2349
▁379	-10.2349
▁잘만들	-10.2353
174,	-10.2353
중간에	-10.2359
어디	-10.236
왜이래	-10.236
▁고통	-10.2362
673,	-10.2366
▁웃음이	-10.2369
ᄏᄏᄏᄏᄏᄏᄏᄏ	-10.2369
바닥	-10.2374
화끈	-10.2391
▁공부	-10.2396
▁틀어	-10.2398
~!!!	-10.2399
▁본다면	-10.2401
씬은	-10.2405
▁펑펑	-10.2407
▁싶을	-10.2408
매우	-10.2409
기위해	-10.241
▁높아	-10.2413
▁느낌을	-10.2418
▁426	-10.2419
혁	-10.243
▁둘다	-10.2432
때까지	-10.2442
해야지	-10.2444
잼잇	-10.2452
▁504	-10.2463
▁멋지다	-10.2464
▁479	-10.2467
▁영화였어요	-10.2467
렬	-10.2468
셉	-10.247
쭉	-10.247
칸	-10.247
견자단	-10.247
밋밋	-10.247
톱	-10.247
548,	-10.2471
709,	-10.2472
슈퍼	-10.2472
▁따뜻해지는	-10.2473
하기에	-10.2476
▁독특한	-10.2477
▁지켜	-10.2477
▁431	-10.2477
▁작가가	-10.2478
▁단연	-10.2486
191,	-10.2489
여태	-10.2491
별루	-10.2504
▁모를	-10.2506
664,	-10.2506
▁볼만함	-10.2508
싫	-10.2508
202,	-10.251
받아	-10.2515
▁살아있	-10.2517
▁잼없	-10.2519
me	-10.2528
영화인데	-10.2531
잔인한	-10.2534
였지만	-10.2535
보지말	-10.2538
왔는데	-10.2538
▁단순한	-10.2545
▁대화	-10.2561
모르	-10.2568
냈다	-10.2579
지않고	-10.258
▁898	-10.2589
▁445	-10.2591
▁635	-10.2596
ᅵ	-10.2597
쥬	-10.2597
헬	-10.2597
852,	-10.2597
▁박수를	-10.2597
▁더불어	-10.2597
지나치게	-10.2598
▁바꿔	-10.2598
474,	-10.2599
하하	-10.26
888,	-10.26
458,	-10.2601
▁발견	-10.2604
▁몸매	-10.2604
▁명품	-10.2604
▁말로	-10.2607
▁761	-10.2608
▁즐기	-10.2609
▁생애	-10.261
흥미로운	-10.261
▁아련	-10.2627
셔서	-10.2629
하기도	-10.2629
평점보고	-10.263
왔습니다	-10.2639
하더라	-10.264
▁보길	-10.2641
▁좋지만	-10.2654
▁죽을	-10.2655
▁남편	-10.2655
▁이해할	-10.2658
같네	-10.2661
지말고	-10.2667
이라서	-10.2668
스럽게	-10.2678
▁연속	-10.2679
겼	-10.2688
최근에	-10.2688
부모님	-10.2697
▁514	-10.2699
즘	-10.27
▁어이가	-10.2702
흡	-10.2708
▁687	-10.2712
불쾌	-10.2716
닮	-10.2718
랍	-10.2723
낀	-10.2725
넌	-10.2725
뽀	-10.2725
▁봤더니	-10.2725
▁에피소드	-10.2725
▁즐거운	-10.2725
밍	-10.2725
▁382	-10.2725
말도안되는	-10.2725
▁피해자	-10.2725
162,	-10.2726
이제서야	-10.2726
583,	-10.2727
▁435	-10.2727
하기엔	-10.273
▁갈등	-10.2732
▁빌려	-10.2735
어린시절	-10.2736
▁훈훈	-10.2739
으론	-10.2741
268,	-10.2747
더럽게	-10.2751
프랑스	-10.2751
읽	-10.2751
잼있어요	-10.2752
▁극치	-10.2757
삼류	-10.2762
▁658	-10.277
▁않을까	-10.2773
▁오바	-10.2774
▁미모	-10.278
적은	-10.2786
▁들어가	-10.2796
손발이	-10.28
▁사랑하는	-10.2801
하고싶은	-10.2803
▁살고	-10.2804
▁71	-10.282
힘	-10.2829
105,	-10.2839
▁689	-10.2839
▁483	-10.284
▁유치하다	-10.2842
▁눈에	-10.2842
속으로	-10.2846
▁모르겠고	-10.2852
찮	-10.2855
빅	-10.2855
퀴	-10.2855
델	-10.2855
카리스마	-10.2855
▁388	-10.2855
729,	-10.2855
레전드	-10.2856
023,	-10.2856
▁쉽게	-10.2857
▁393	-10.2857
▁463	-10.2858
▁739	-10.2859
▁방법	-10.2861
267,	-10.2866
▁362	-10.2868
▁266	-10.287
▁잔잔	-10.2872
어른	-10.2873
!!!!!!!!!!!!!!!!	-10.2874
............	-10.2879
▁작은	-10.2881
ll	-10.2884
▁진정	-10.2887
일본영화	-10.2887
얼굴	-10.2892
겠네요	-10.2899
으니까	-10.2902
베리	-10.2904
보네	-10.2906
멜로	-10.2907
듣고	-10.2908
▁이런게	-10.2912
▁왜케	-10.2913
▁죄다	-10.2917
▁읽어	-10.2923
▁못한다	-10.2927
였고	-10.2931
ver	-10.2952
쟁이	-10.2952
▁힘들다	-10.2955
▁나오면	-10.2957
▁좀더	-10.2969
▁점수를	-10.297
잇는	-10.2971
550,	-10.2974
▁무리	-10.2977
▁480	-10.2981
▁516	-10.2982
뛰	-10.2985
칭	-10.2986
316,	-10.2987
▁응원	-10.2988
핵노잼	-10.2988
▁좋았으나	-10.2988
인물	-10.2989
영화보면서	-10.299
▁못하다	-10.2996
▁300	-10.2996
▁519	-10.2997
990,	-10.2998
▁좋았지만	-10.3002
잘만들었	-10.3004
▁지금은	-10.3009
▁몰입해서	-10.3009
▁신파	-10.3014
친구가	-10.302
▁비하면	-10.3022
▁부모	-10.3037
▁싶지	-10.3044
부작	-10.3054
▁이유를	-10.3055
사람들은	-10.306
것인가	-10.3062
▁평범	-10.3064
▁오랜만	-10.3069
▁327	-10.3073
쉽	-10.3089
▁436	-10.3098
▁제로	-10.31
▁493	-10.3101
룡	-10.3107
했다고	-10.3109
▁196	-10.3112
▁454	-10.3114
재밌네요	-10.3119
▁이쁘다	-10.312
크리스마스	-10.312
▁직접	-10.312
▁스스로	-10.312
494,	-10.312
▁646	-10.3122
▁736	-10.3122
▁899	-10.3125
▁편견	-10.3125
▁안타깝다	-10.3126
기법	-10.313
새끼들	-10.3131
▁심각	-10.3132
빼곤	-10.3139
신분들	-10.3139
라스	-10.314
▁울었다	-10.3155
▁156	-10.3162
▁질리지	-10.3169
뇌	-10.317
▁우리가	-10.3179
▁삶의	-10.3183
좋았다	-10.3184
▁99	-10.3191
거리는	-10.3193
평론가	-10.3198
할만한	-10.3208
▁343	-10.3214
촌스럽	-10.3216
쟁	-10.3218
▁537	-10.3231
▁558	-10.3249
▁460	-10.325
▁322	-10.3255
왠만하면	-10.3255
▁느껴진다	-10.3255
▁맨날	-10.3256
ᄍ	-10.3256
▁기다려	-10.3256
엇다	-10.3257
▁526	-10.3257
824,	-10.3258
▁630	-10.3258
▁669	-10.3258
▁헤어	-10.3259
651,	-10.3261
▁멍청한	-10.3261
▁일어나	-10.3261
▁슬프고	-10.3265
▁한국인	-10.3267
했을까	-10.3268
없어서	-10.3282
비현실적	-10.3283
▁기대했는데	-10.3283
재밌고	-10.3285
▁게이	-10.3286
▁인간이	-10.3289
▁과장	-10.3289
인디	-10.3294
▁320	-10.3295
▁655	-10.3301
▁지구	-10.3305
하던데	-10.3307
▁716	-10.3309
멋있	-10.3316
▁돋보이	-10.3318
▁현실적인	-10.3322
냥	-10.3332
필요없	-10.3336
제대로	-10.3344
러브	-10.335
▁한참	-10.3353
▁중에서	-10.3358
식상한	-10.3364
▁없어요	-10.3366
구리	-10.3371
▁506	-10.3372
▁378	-10.3376
▁636	-10.3377
끊	-10.338
닐	-10.3382
남자주인공	-10.3385
충격	-10.3385
ᄇ	-10.3391
층	-10.3392
케이블에서	-10.3392
거짓말	-10.3392
▁440	-10.3394
▁살려	-10.3395
▁416	-10.3395
▁467	-10.3395
▁220	-10.3401
좀비	-10.3406
▁게다가	-10.3408
▁긴장감도	-10.3409
있나	-10.3409
속의	-10.3409
만큼은	-10.3425
기까지	-10.3425
화려하	-10.3433
▁딱히	-10.3434
▁망치	-10.3435
▁이따위	-10.3436
▁안보고	-10.3438
근래	-10.344
▁산으로	-10.3443
▁이제야	-10.3454
태어나서	-10.3454
당연히	-10.3454
▁뛰어	-10.3456
장르	-10.3457
듯하다	-10.3457
자연	-10.3457
▁나오지	-10.3477
▁재미있네요	-10.3477
▁만든거	-10.3483
전율	-10.3485
▁344	-10.349
보던	-10.3493
흘리	-10.3493
▁497	-10.3495
중간	-10.35
st	-10.3503
싸우	-10.3517
▁관한	-10.352
▁397	-10.3526
▁333	-10.3527
춰	-10.3529
탓	-10.3531
폼	-10.3531
W	-10.3531
▁갖고	-10.3531
년만에	-10.3534
▁결정	-10.3535
▁782	-10.3535
▁335	-10.3536
▁개연성이	-10.354
▁361	-10.3544
▁비슷하	-10.3548
▁빠진	-10.355
▁대해서	-10.3555
재밌는	-10.3556
▁없었던	-10.3559
상태	-10.3559
거죠	-10.3563
▁감동과	-10.3564
빠졌	-10.3569
겠음	-10.3571
하겠다	-10.3586
여러	-10.3595
남주	-10.3601
나오고	-10.3604
점정도	-10.3609
▁없습니다	-10.361
그나마	-10.3616
▁829	-10.3625
▁위해서	-10.3631
▁진부하	-10.3635
능력	-10.3647
▁검색	-10.3648
▁추억의	-10.3654
▁죽은	-10.3657
줄거리	-10.3664
▁528	-10.3666
렵	-10.3667
혐	-10.3671
풋	-10.3672
▁나쁘지	-10.3672
딘	-10.3672
벅	-10.3672
캬	-10.3672
케릭터	-10.3672
핑	-10.3672
U	-10.3672
▁뭉클	-10.3672
평론가들	-10.3672
▁the	-10.3672
▁결말은	-10.3673
▁짜증난다	-10.368
▁꿈을	-10.3683
bb	-10.3685
▁392	-10.3685
▁느껴졌	-10.3685
026,	-10.3686
▁아름다웠	-10.3687
▁조합	-10.3692
▁웃기고	-10.3701
▁674	-10.3703
▁297	-10.3706
▁올려	-10.3707
되었다	-10.3722
보게되	-10.3723
저리	-10.3726
▁뻔하고	-10.3737
놈이	-10.3746
▁356	-10.3754
▁국내	-10.3761
불쌍	-10.3765
시청률	-10.3767
잔인하	-10.3768
취향	-10.3769
병맛	-10.377
▁감정을	-10.3782
▁830	-10.3783
▁식상	-10.3789
▁못함	-10.379
▁자주	-10.3793
▁울고	-10.3799
▁575	-10.3808
이래서	-10.3808
▁901	-10.3809
▁430	-10.3811
몬	-10.3815
긋	-10.3815
뽕	-10.3815
쿵	-10.3815
깡	-10.3815
z	-10.3815
▁9985	-10.3815
▁331	-10.3816
매니아	-10.3816
▁의미를	-10.3817
삭제	-10.3818
▁532	-10.382
▁387	-10.382
▁900	-10.3822
▁알겠는데	-10.3827
▁성격	-10.3829
▁관객들	-10.3833
▁일품	-10.3833
▁영화인듯	-10.3843
▁140	-10.3844
▁모르겠지만	-10.3845
마지막장면	-10.3851
▁대부분	-10.3854
▁240	-10.3855
▁이미지	-10.3856
좋음	-10.3861
▁둘이	-10.3864
▁있었지만	-10.3866
보고싶다	-10.3867
▁미드	-10.3874
▁개연성도	-10.3879
▁566	-10.3886
▁438	-10.3888
천국	-10.3901
때부터	-10.3909
댓글	-10.3921
불륜	-10.3921
▁지루하게	-10.3922
출연	-10.3923
들어서	-10.3926
▁안돼	-10.3927
럼	-10.3934
▁있다니	-10.3934
▁336	-10.3934
친구랑	-10.394
▁보기에	-10.3941
▁206	-10.3943
▁조잡	-10.3953
▁461	-10.3953
▁462	-10.3956
후회	-10.3959
it	-10.3959
덩	-10.3959
쪼	-10.3959
특수효과	-10.3959
▁울컥	-10.396
▁야한	-10.396
손가락	-10.396
제임스	-10.3961
▁704	-10.3961
▁475	-10.3962
▁303	-10.3973
▁양심	-10.3974
분들이	-10.3979
살면서	-10.3979
▁10275	-10.399
옴	-10.3996
유쾌하고	-10.4003
버릴	-10.4005
▁만들면	-10.4007
발연기	-10.401
▁한마디	-10.4012
▁637	-10.4016
▁714	-10.4022
▁306	-10.4037
▁재밌다고	-10.4044
th	-10.4046
건가요	-10.4053
정말이지	-10.4061
본사람	-10.4062
보구	-10.4083
돈주고	-10.4083
▁738	-10.4092
▁사진	-10.4098
▁151	-10.4099
▁434	-10.4099
▁458	-10.4099
▁643	-10.4101
년도에	-10.4105
뚱	-10.4107
▁아까울	-10.4107
초등학교	-10.4107
▁말아먹	-10.4108
▁교육	-10.4109
▁좋겠어요	-10.4115
▁외모	-10.4126
싶어서	-10.4128
▁착한	-10.4128
▁291	-10.4132
있었다	-10.4137
▁살아가는	-10.4139
재밋음	-10.4144
▁비판	-10.4152
하길	-10.4158
▁넘치는	-10.4158
쳐서	-10.4159
상영관	-10.4165
받아서	-10.4169
▁소름이	-10.4175
▁죽인	-10.4175
▁152	-10.4177
▁123	-10.4183
혹시	-10.4185
하는건지	-10.4186
보통	-10.4191
▁자체는	-10.4205
점만점	-10.4223
붙	-10.4235
화려한	-10.4236
상당히	-10.4236
올리	-10.4237
▁니들	-10.4239
▁보여주고	-10.4243
▁502	-10.4244
웃겨	-10.4245
▁현실적	-10.4248
▁453	-10.4251
맡	-10.4253
묵	-10.4256
땡	-10.4256
▁봤을때	-10.4256
냄새	-10.4257
유일하게	-10.4257
▁337	-10.4258
▁문제가	-10.4258
▁385	-10.4261
▁601	-10.4262
▁씁쓸	-10.4274
뒤에	-10.428
▁290	-10.4284
중독	-10.4291
▁영어	-10.4291
새벽에	-10.4301
지도않	-10.4301
스럽지	-10.4305
▁170	-10.4307
몰입도	-10.4316
꼭보세요	-10.4319
▁멋있다	-10.4329
^^*	-10.433
▁많은데	-10.4335
센스	-10.4336
훈훈한	-10.4343
▁깔끔	-10.4344
▁알수	-10.4347
감동적인	-10.435
했었는데	-10.4354
▁시원	-10.438
▁없지	-10.4382
주고싶다	-10.4388
객	-10.4397
판타지	-10.4397
수작	-10.4401
▁763	-10.4402
▁465	-10.4402
측	-10.4405
싹	-10.4407
엑	-10.4407
▁470	-10.4409
▁466	-10.441
빵빵	-10.441
▁개뿔	-10.441
▁새롭	-10.441
▁풍경	-10.4413
▁326	-10.4413
▁알수있	-10.4414
▁390	-10.4418
▁512	-10.4419
:)	-10.4423
▁해결	-10.4433
▁무척	-10.4437
몇몇	-10.4441
보여주	-10.4459
▁246	-10.4459
부탁	-10.4465
▁인해	-10.447
▁많고	-10.4479
해준다	-10.4485
댄	-10.449
▁269	-10.4499
▁똑같은	-10.4504
▁304	-10.451
▁120	-10.4511
▁느꼈다	-10.4514
▁생각하면	-10.4514
▁164	-10.4515
밤에	-10.4515
어느	-10.452
아까움	-10.4522
▁단어	-10.4523
만약	-10.4533
▁우주	-10.4536
벗	-10.4538
▁432	-10.4558
▁559	-10.4558
▁시청	-10.4559
대한민국	-10.456
아저씨	-10.456
같지	-10.456
넹	-10.4561
략	-10.4561
DVD	-10.4561
스티븐	-10.4561
싼	-10.4561
잘봤어요	-10.4561
▁로그인	-10.4561
동성애	-10.4561
킬링타임용	-10.4562
로맨스	-10.4563
▁민망	-10.4564
▁뛰어넘	-10.4564
▁감흥	-10.4564
▁행복한	-10.4564
▁바꾸	-10.4568
▁다룬	-10.4568
▁하늘	-10.4569
▁어느정도	-10.4569
하진	-10.4573
▁302	-10.4573
엉성	-10.4577
▁상업	-10.4578
조선	-10.458
입장	-10.4581
▁135	-10.4585
실화	-10.4593
되나	-10.4594
해주고	-10.4595
▁주기도	-10.46
겨울	-10.4603
어설프고	-10.4608
▁158	-10.4618
공주	-10.4622
것같은	-10.4624
했더니	-10.4625
내가본	-10.4631
▁내면	-10.4643
▁조화	-10.4645
제일	-10.4658
▁이상하게	-10.466
▁완전히	-10.4661
좋네요	-10.4664
셈	-10.4667
▁이런영화가	-10.4677
속편	-10.469
▁가르	-10.4701
▁반대	-10.4706
▁363	-10.4707
아까웠	-10.4714
뷰	-10.4716
녕	-10.4717
럭	-10.4717
윈	-10.4717
클레멘타인	-10.4717
흉	-10.4717
찐	-10.4717
▁떨어진다	-10.4718
▁398	-10.4718
▁383	-10.472
소소한	-10.4721
▁338	-10.4723
▁334	-10.4723
긴하지만	-10.4724
▁변태	-10.4727
악한	-10.4729
바람	-10.4735
▁254	-10.4736
▁생각할	-10.4739
▁가치가	-10.4743
보고나서	-10.4746
▁부실	-10.4748
▁10276	-10.4749
▁좋게	-10.4751
기대이상	-10.4752
▁312	-10.4752
▁159	-10.4755
▁592	-10.4764
안됨	-10.477
▁248	-10.4778
요소	-10.478
▁하나하나	-10.4784
힘들	-10.4786
▁보여줬	-10.4786
해진다	-10.4791
▁350	-10.4794
▁단지	-10.4799
필요	-10.4801
▁풋풋	-10.4801
▁안맞	-10.4802
▁251	-10.4808
보아	-10.4812
▁535	-10.4817
버전	-10.4822
▁309	-10.4823
▁죽이는	-10.4824
똑	-10.4835
예능	-10.4835
▁높게	-10.4837
추격	-10.484
감각	-10.4844
뻐	-10.4854
▁잡아	-10.4861
스러워	-10.487
따뜻한	-10.4872
▁만들었는지	-10.4876
겪	-10.4876
곧	-10.4876
곱	-10.4876
ᅥ	-10.4876
숨겨진	-10.4876
유덕화	-10.4876
장국영	-10.4876
▁가슴에	-10.4878
2000	-10.488
▁위로	-10.4882
▁사라지	-10.4882
▁425	-10.4884
같지만	-10.4885
▁깨닫게	-10.4888
여자주인공	-10.4889
애니메이션	-10.4897
였어	-10.49
▁훌륭하다	-10.4905
그닥	-10.4908
나쁜	-10.4912
▁맛이	-10.4914
▁모르겠음	-10.4919
▁낮네	-10.4919
어디서	-10.492
치곤	-10.492
그저그런	-10.4921
▁누구나	-10.4948
▁298	-10.4973
▁267	-10.4978
진실	-10.4983
가능한	-10.4984
▁당연	-10.4985
봐도봐도	-10.4989
쩔어	-10.4997
▁따로	-10.5002
▁길게	-10.5003
▁음악과	-10.5003
▁513	-10.5004
▁113	-10.5009
♥♥♥	-10.5017
여러분	-10.5023
▁탄탄	-10.5024
▁696	-10.5028
곽	-10.5037
둔	-10.5037
틸	-10.5037
▁무엇인지	-10.5037
닉	-10.5037
핀	-10.5037
드디어	-10.5038
▁충실	-10.5038
▁이래	-10.5039
▁인상적	-10.5039
▁데리고	-10.504
▁한명	-10.5044
스키	-10.5053
▁기대했	-10.5055
▁258	-10.5057
▁열연	-10.5057
▁잊을	-10.506
▁신경	-10.5063
블루	-10.5063
▁조절	-10.5065
▁터지	-10.5068
구석	-10.507
마무리	-10.507
▁지났	-10.5075
반담	-10.5075
▁137	-10.5085
배경음악	-10.5103
복수	-10.5117
돼지	-10.5118
▁509	-10.5119
▁신선하고	-10.5126
▁국가	-10.5136
▁않네요	-10.5137
해야할	-10.5141
만듬	-10.5143
원작의	-10.5144
▁358	-10.5146
이런건	-10.5149
신선	-10.5158
특별한	-10.5158
▁유치해	-10.5162
▁118	-10.517
▁친구들	-10.5175
▁419	-10.5182
알아	-10.5185
▁484	-10.5187
파리	-10.5191
▁개성	-10.5193
덕에	-10.5194
▁478	-10.5197
처음에는	-10.5198
숭	-10.5201
삐	-10.5201
덴	-10.5201
J	-10.5201
러시아	-10.5202
▁446	-10.5204
▁781	-10.5205
▁273	-10.5206
▁겨우	-10.5207
▁503	-10.5209
▁밀려	-10.5212
▁야동	-10.5213
장르가	-10.5215
랜드	-10.5228
▁133	-10.5233
▁허세	-10.5236
했지	-10.5237
▁270	-10.5238
al	-10.5243
코메디	-10.5244
얼마나	-10.5245
▁명화	-10.5247
괜히	-10.5248
화이팅	-10.5262
▁관점	-10.5263
오글오글	-10.5266
▁남아있	-10.527
▁안간다	-10.5272
중학교	-10.5277
▁거기에	-10.5283
▁565	-10.5291
▁좋아해서	-10.5292
▁보기에는	-10.5292
▁308	-10.5299
받았	-10.5306
▁825	-10.5315
본영화중	-10.5338
잖	-10.534
▁뛰어나	-10.535
▁157	-10.5354
▁그녀의	-10.536
ad	-10.5362
▁424	-10.5363
▁376	-10.5365
뮤	-10.5366
햇다	-10.5368
랩	-10.5368
컴퓨터	-10.5368
로버트	-10.5368
▁다양한	-10.5369
ᄏᄏᄏᄏᄏᄏᄏᄏᄏᄏᄏᄏᄏ	-10.5369
▁486	-10.5371
납니다	-10.5372
나올때	-10.5373
탈출	-10.5374
볼만한	-10.5376
▁억지스러운	-10.5376
▁377	-10.5378
케빈	-10.5378
▁할머니	-10.538
폭풍	-10.5381
▁보았습니다	-10.5391
▁좋겠네요	-10.5392
▁해석	-10.5393
▁265	-10.5394
▁253	-10.5394
as	-10.5395
후반	-10.5401
▁264	-10.5401
▁정체	-10.5407
▁묻어	-10.541
귀엽	-10.5423
그래픽	-10.5424
빠져	-10.5425
▁진부하고	-10.543
점줌	-10.5431
▁429	-10.5453
▁명작입니다	-10.5454
하지마	-10.5465
같았다	-10.5469
글자	-10.5479
▁최대	-10.5488
오랫만에	-10.5492
혹은	-10.5512
귀신	-10.5523
두번	-10.5526
벼	-10.5537
▁399	-10.5537
▁봤을까	-10.5538
뱀파이어	-10.5538
컴	-10.5538
부끄럽	-10.5538
조니뎁	-10.5538
▁반드시	-10.5538
시간가는줄	-10.5538
▁재미없게	-10.5538
▁착각	-10.5538
무서움	-10.5538
킬링	-10.5538
사투리	-10.5539
▁둘째	-10.5539
거같은데	-10.554
▁집착	-10.5542
▁471	-10.5544
▁세련	-10.5546
▁257	-10.555
▁난리	-10.5551
끝날때	-10.5552
▁421	-10.5554
낮은	-10.5558
▁307	-10.5559
▁349	-10.5573
▁10274	-10.5575
▁괜찮은데	-10.5579
이런걸	-10.5579
▁확인	-10.5585
▁171	-10.5587
있습니다	-10.5588
▁기준	-10.5588
▁감안	-10.5591
▁단편	-10.5597
한편의	-10.5603
걸작	-10.5604
낭비	-10.5606
우연히	-10.561
그럼	-10.5613
▁244	-10.5616
▁떨어지고	-10.5617
▁싸우는	-10.5618
하나같이	-10.562
▁대단하	-10.563
▁만들수	-10.5633
따구	-10.5636
소름	-10.5639
못하는	-10.5647
ᄏᄏᄏᄏᄏᄏᄏᄏᄏ	-10.5669
▁삶에	-10.5675
볼려고	-10.5675
▁여운을	-10.5681
▁존경	-10.5682
늦	-10.5682
이딴걸	-10.5683
->	-10.5685
부분은	-10.5694
쌍	-10.5705
▁649	-10.5706
▁783	-10.5707
액	-10.5709
곰	-10.571
드래곤	-10.571
짐캐리	-10.571
터미네이터	-10.571
설득력	-10.571
박중훈	-10.571
고등학교	-10.571
뭥미	-10.571
자동차	-10.571
▁탄생	-10.5711
제이슨	-10.5711
▁영혼	-10.5718
▁138	-10.5726
▁252	-10.5726
독립영화	-10.5734
▁욕망	-10.5734
▁420	-10.5735
수밖에	-10.5735
▁아쉽지만	-10.5737
▁감명	-10.5737
▁271	-10.5738
▁268	-10.5738
작위적	-10.5739
▁있구나	-10.5739
▁229	-10.5739
▁많아서	-10.5743
▁세상을	-10.5744
▁생각했는데	-10.5751
없나	-10.5762
파괴	-10.5764
▁생각나서	-10.5768
he	-10.5774
▁최고였다	-10.5776
▁이럴	-10.5782
였으면	-10.5783
춤	-10.5789
굉장히	-10.579
고딩	-10.5791
훌륭한	-10.5791
▁모든것	-10.5791
▁498	-10.5801
▁243	-10.5818
참으로	-10.5828
지않았	-10.5835
잡는	-10.5847
새벽	-10.5848
▁답답한	-10.5852
▁끌고	-10.5854
좋은데	-10.5855
졸라	-10.586
그림	-10.5864
▁325	-10.5865
거같음	-10.5869
다시보고싶	-10.587
▁464	-10.587
▁485	-10.5872
여자들	-10.5873
보시길	-10.5874
았지만	-10.5875
재난영화	-10.5875
잊을수	-10.5875
브라	-10.5878
▁476	-10.5882
닿	-10.5884
하나하나가	-10.5885
▁다루	-10.5885
볍	-10.5885
멈	-10.5885
닷	-10.5885
살다살다	-10.5885
찔	-10.5885
그야말로	-10.5885
땀	-10.5885
짜임새	-10.5885
▁9986	-10.5886
▁521	-10.5886
▁소중함	-10.5886
지마세요	-10.5887
박진감	-10.5887
▁9305	-10.5887
누군지	-10.5887
▁295	-10.5888
▁414	-10.5889
달콤	-10.589
▁279	-10.5894
▁치밀	-10.5895
▁141	-10.5896
▁제외	-10.5901
▁괜찮았다	-10.5902
앞뒤	-10.5905
늦게	-10.5906
환경	-10.5908
▁511	-10.5919
▁궁금하다	-10.5922
놀이	-10.5926
▁341	-10.5929
허허	-10.5931
것같아요	-10.5935
임에도	-10.5936
▁기회	-10.5939
져요	-10.5942
▁자살	-10.5943
▁9855	-10.5967
▁뭘까	-10.597
▁아직까지	-10.5978
카메라	-10.5978
무서운	-10.5979
ᄉᄇ	-10.5979
있어요	-10.598
여러번	-10.5984
제작비	-10.5989
▁168	-10.5993
흥미	-10.5994
여친	-10.5998
묘사	-10.6001
각본	-10.6017
▁457	-10.6026
하니까	-10.6026
▁324	-10.6048
▁292	-10.605
최고최고	-10.605
▁365	-10.6051
아이들과	-10.6056
낄	-10.6064
펜	-10.6064
앨	-10.6064
쿨	-10.6064
▁예쁘고	-10.6064
▁왤케	-10.6064
시간때우기	-10.6064
탱	-10.6064
가벼운	-10.6064
▁그립다	-10.6064
스타뎀	-10.6064
▁소중한	-10.6065
▁468	-10.6067
▁관련	-10.6068
것처럼	-10.6068
비추	-10.6071
돈내고	-10.6071
적당히	-10.6073
▁422	-10.6073
▁339	-10.6075
혁명	-10.608
▁끝났	-10.6086
예뻐	-10.6087
높은	-10.6087
시작부터	-10.6094
▁선동	-10.6095
▁10273	-10.6103
▁321	-10.6105
▁없나요	-10.611
▁웃기다	-10.6111
▁진리	-10.6115
내돈	-10.6117
▁멋져	-10.6117
싫어	-10.6121
▁다르다	-10.6123
le	-10.6138
거같아요	-10.6143
▁살린	-10.6148
실화를	-10.6168
시간낭비	-10.6174
cg	-10.6177
지않아	-10.6185
좋았어	-10.6186
▁쓰레기같은	-10.6189
▁도전	-10.6191
천재	-10.6194
▁낮게	-10.6198
▁허술하	-10.6216
▁추리	-10.622
▁477	-10.6229
섭	-10.6235
하러	-10.6236
▁235	-10.6243
갱	-10.6246
랭	-10.6246
숀	-10.6246
블록버스터	-10.6246
쓸데없이	-10.6246
이병헌	-10.6246
심형래	-10.6246
제니퍼	-10.6246
▁위대한	-10.6246
▁떨어짐	-10.6246
▁유일한	-10.6246
▁심지어	-10.6247
사운드	-10.6248
▁충격적이	-10.6248
▁꿈꾸	-10.6248
▁660	-10.6248
▁296	-10.6249
그당시	-10.6249
▁재밌지	-10.6249
영원한	-10.6249
왠지	-10.625
▁잤다	-10.6252
▁274	-10.6253
▁빛나는	-10.6254
▁보았는데	-10.6264
자꾸	-10.6265
▁배역	-10.6271
▁생각함	-10.6275
▁대중	-10.6279
야겠다	-10.6287
보기싫	-10.6288
라는걸	-10.6288
올라	-10.63
▁어울리는	-10.63
▁불쌍하다	-10.6306
~~~~~	-10.6306
없네요	-10.6311
좋앗	-10.6317
▁낚이	-10.6325
▁아예	-10.6332
가슴을	-10.6333
첨엔	-10.6336
▁496	-10.6338
티비로	-10.6339
▁심하게	-10.634
▁없으면	-10.6343
빼	-10.6348
시간아깝다	-10.6364
▁주제를	-10.6366
쁜	-10.6368
느끼	-10.6379
▁그만큼	-10.6381
항상	-10.6383
허무	-10.6395
▁351	-10.64
▁어쩔수	-10.6406
▁보다니	-10.6408
실제	-10.6415
▁일깨워	-10.6431
▁임팩트	-10.6431
깍	-10.6431
뭣	-10.6431
인터넷	-10.6431
▁감정이입	-10.6431
배트맨	-10.6431
이소룡	-10.6431
보느니	-10.6431
저런	-10.6432
하정우	-10.6434
▁433	-10.6437
▁329	-10.6442
질질끌	-10.6443
▁174	-10.6443
▁웃기지도	-10.6448
▁172	-10.6448
▁332	-10.6449
▁생긴	-10.6454
▁520	-10.6455
▁시점	-10.6463
갔는데	-10.6465
▁용기	-10.647
▁떠오르	-10.6479
▁형편없	-10.6486
▁실제로	-10.6496
우리는	-10.65
허술한	-10.6511
영화중에서	-10.6511
답게	-10.6517
▁715	-10.6522
오오	-10.6523
목숨	-10.6532
때매	-10.6536
▁작품이라	-10.6538
▁낮아	-10.654
▁가족영화	-10.6557
▁163	-10.6559
다시보기	-10.6563
작이라	-10.6567
청춘	-10.657
보지마세요	-10.6575
재미있어	-10.6584
▁395	-10.6599
줬으면	-10.6603
부러	-10.6606
▁아닐	-10.6609
만드냐	-10.661
▁427	-10.661
▁볼만하	-10.6611
최악의영화	-10.6615
▁따뜻해	-10.6618
망작	-10.6619
륭	-10.662
닭	-10.662
쫄	-10.662
우뢰매	-10.662
언젠가	-10.662
나레이션	-10.662
▁잼나게	-10.662
공짜로	-10.662
▁모른다	-10.662
▁760	-10.6623
▁367	-10.6624
▁낚시	-10.6625
▁빵점	-10.6627
▁275	-10.6627
▁두번째	-10.663
▁의외로	-10.663
▁할말이	-10.6631
킬러	-10.6634
▁거북	-10.6635
▁얼마	-10.6639
하실	-10.664
연출과	-10.6641
▁방영	-10.6643
▁로코	-10.6645
책으로	-10.6645
▁또다른	-10.6646
▁330	-10.6648
▁무료	-10.6648
▁재미없었다	-10.6651
회사	-10.6654
▁홍콩영화	-10.666
▁사람들에게	-10.6667
▁명장면	-10.6669
▁내용인지	-10.6669
마냥	-10.6671
▁재미없어서	-10.6675
▁놀랍다	-10.6678
보셈	-10.6681
월드	-10.6685
▁무시하	-10.6713
초딩때	-10.6727
▁몰랐다	-10.6729
작품성	-10.6731
▁안맞는	-10.6733
것만으로도	-10.6736
단순히	-10.6737
왓	-10.6737
년작	-10.6739
자막	-10.6749
교훈	-10.6764
잘봤습니다	-10.677
갑자기	-10.6771
진부한	-10.6772
노출	-10.6789
▁238	-10.6805
▁328	-10.6809
씁	-10.6812
팍	-10.6812
ᄎ	-10.6812
ᄡ	-10.6812
옳	-10.6812
재밌게봤어요	-10.6812
깃	-10.6812
킥	-10.6812
▁리얼리티	-10.6812
베드신	-10.6813
▁만났	-10.6813
고싶어	-10.6814
▁어렵다	-10.6814
▁아름답게	-10.6816
▁이것보단	-10.6816
분만에	-10.6817
▁아쉬워	-10.6818
▁255	-10.6832
▁흔들	-10.6834
▁179	-10.6835
▁악마	-10.6844
▁높아서	-10.6846
터짐	-10.685
▁만남	-10.6852
▁선물	-10.6855
모르고	-10.686
▁싶어요	-10.687
할수있는	-10.687
한국판	-10.6877
장애	-10.6878
▁어색하고	-10.6883
▁망친	-10.6896
▁마음으로	-10.69
우연	-10.6901
몰입도가	-10.6902
있으면	-10.691
만드네	-10.6915
▁어설프	-10.695
인권	-10.6953
▁737	-10.6962
범죄	-10.6973
기도하고	-10.6975
▁473	-10.6981
목소리	-10.6986
결혼	-10.6987
▁낮다	-10.7002
륜	-10.7004
▁이런영화를	-10.7007
뚜	-10.7008
dvd	-10.7008
▁아깝고	-10.7008
뒤죽박죽	-10.7008
대통령	-10.7008
▁잔뜩	-10.7008
▁지겹다	-10.7008
임창정	-10.7008
▁9988	-10.7008
양아치	-10.7009
▁293	-10.7009
희대의	-10.7009
왠만한	-10.7011
내생에	-10.7012
이런영화는	-10.7012
에대해	-10.7013
▁할아버지	-10.7017
뭐하자는	-10.7018
격투	-10.7023
답니다	-10.7023
편집	-10.703
▁탄탄하고	-10.7032
▁이해할수	-10.7035
▁유행	-10.7043
혹시나	-10.7047
▁산만하	-10.7054
▁욕심	-10.7054
▁10272	-10.7056
중딩	-10.7073
믿고보는	-10.7075
장애인	-10.7078
바보	-10.7087
나름대로	-10.709
▁정작	-10.7098
갈때	-10.7105
▁괜찮음	-10.7105
했을때	-10.7149
억지감동	-10.7152
es	-10.7166
▁넘치	-10.7177
▁액션씬	-10.7187
ᄏᄏᄏᄏᄏᄏᄏᄏᄏᄏᄏ	-10.7187
중반부	-10.7194
현재	-10.7195
대단한	-10.7195
극장판	-10.7199
▁상대	-10.72
경찰	-10.7203
후반부	-10.7206
윌	-10.7208
눌	-10.7208
뗄	-10.7208
웰메이드	-10.7208
▁벗어나	-10.7209
▁동시에	-10.7209
▁of	-10.7209
적절한	-10.7209
▁따뜻하고	-10.7211
▁위험	-10.7212
▁10124	-10.7212
▁아까웠다	-10.7213
▁175	-10.7218
▁178	-10.7221
▁목적	-10.7232
▁동양	-10.7232
보았	-10.7235
잘못	-10.7237
려다가	-10.7238
▁만들다니	-10.7241
▁지루하기	-10.7241
▁책임	-10.7242
함께	-10.7245
▁좀비영화	-10.7247
그녀	-10.7248
▁말투	-10.725
▁전쟁영화	-10.7255
엇는데	-10.7265
▁좋을듯	-10.7267
▁10247	-10.7272
▁남긴	-10.7276
앞	-10.7276
▁배신	-10.7284
▁짜증나서	-10.7288
▁매일	-10.7293
제목만	-10.7295
▁수입	-10.7298
잔잔하면서	-10.73
곳에서	-10.7308
-_-;;	-10.7314
에로영화	-10.7323
기대이하	-10.7328
굿굿굿	-10.7341
▁놀랍	-10.7352
잖아요	-10.7368
관객을	-10.7373
차별	-10.7378
♥♥♥♥	-10.7389
하거나	-10.7394
▁철학적	-10.7399
씀	-10.7399
▁396	-10.7403
▁394	-10.741
닫	-10.7411
삽	-10.7412
깁	-10.7412
쓸데없는	-10.7412
네티즌	-10.7412
썰	-10.7412
켄	-10.7412
템	-10.7412
퓨	-10.7412
ost	-10.7413
이토록	-10.7413
ᄌᄂ	-10.7413
▁걱정	-10.7414
폭력	-10.7414
갠적으로	-10.7414
최소한	-10.7414
▁234	-10.7417
정우성	-10.7417
흑백	-10.7419
▁짧은	-10.7421
선택	-10.7422
▁다섯	-10.7424
▁아깝네요	-10.7427
웃긴	-10.7429
돋보였	-10.7431
▁250	-10.7434
짜릿	-10.7435
첨부터	-10.7439
평생	-10.7442
▁스토리전개	-10.7443
▁따분	-10.7444
▁230	-10.7445
▁포스	-10.7449
물론	-10.7452
▁10270	-10.7454
▁없었음	-10.7454
만큼이나	-10.7456
▁좋아하지만	-10.7457
돈아깝	-10.7462
개노잼	-10.7469
▁유발	-10.747
▁인형	-10.7475
▁확실	-10.7481
▁일반	-10.7486
연습	-10.7498
▁410	-10.7498
댄스	-10.7507
보고싶은데	-10.7516
운동	-10.752
▁계기	-10.7522
연애	-10.754
▁510	-10.755
점이상	-10.7554
지말자	-10.7579
만화책	-10.7583
톤	-10.7587
▁멋졌	-10.7587
▁437	-10.7618
뎅	-10.762
쇄	-10.762
띄	-10.762
및	-10.762
얄	-10.762
짤	-10.762
해리포터	-10.762
▁바랍니다	-10.762
▁이뻐서	-10.762
평점조절	-10.7621
아놀드	-10.7621
재미있는데	-10.7622
▁368	-10.7622
잭슨	-10.7622
▁10021	-10.7623
굳굳	-10.7625
▁명대사	-10.7626
▁373	-10.7626
돈으로	-10.7627
▁366	-10.7627
▁모험	-10.7629
▁372	-10.7631
멀	-10.7631
▁과학	-10.7633
새로운	-10.7636
▁놓치	-10.7636
▁내용전개	-10.7638
▁재능	-10.7642
하지않고	-10.7645
죄송	-10.7646
끝내	-10.7646
그랬	-10.7651
외국	-10.7652
▁412	-10.7654
ᄏᄏᄏᄏᄏᄏᄏᄏᄏᄏᄏᄏ	-10.7654
▁승리	-10.7655
최악이다	-10.768
소녀	-10.7682
▁풍자	-10.7689
대결	-10.7706
▁생명	-10.7723
장난하나	-10.7736
될듯	-10.7738
허술	-10.7742
차원	-10.7745
오글거려	-10.7751
un	-10.7765
ma	-10.7765
표정	-10.7777
▁봐야하는	-10.7789
▁소년	-10.7815
▁아깝네	-10.7818
잊혀	-10.7819
▁423	-10.7822
▁쉽지	-10.7827
공연	-10.7827
▁694	-10.7828
밴	-10.7833
렛	-10.7833
젖	-10.7833
킴	-10.7833
퉤	-10.7833
▁10246	-10.7833
▁놀라운	-10.7833
주윤발	-10.7833
▁안타까운	-10.7833
▁흐르는	-10.7835
▁귀여워요	-10.7835
▁거지같은	-10.7836
▁쩌는	-10.7838
마약	-10.7839
▁거기다	-10.7839
이런류의	-10.7843
더러워	-10.7852
▁415	-10.7855
▁사람이라면	-10.7856
▁순수함	-10.7859
▁9832	-10.7859
SF	-10.7861
스톤	-10.7868
분동안	-10.7868
▁나와야	-10.7877
▁본건데	-10.7883
est	-10.7892
볼까	-10.7893
보소	-10.7893
▁빠져서	-10.7893
▁안습	-10.7901
옆	-10.7904
생김	-10.7917
▁욕먹	-10.7929
미녀	-10.7932
그동안	-10.7938
이상은	-10.7941
겠죠	-10.7953
▁달려	-10.7961
순위	-10.7983
번씩	-10.799
장난치	-10.7996
돌려	-10.7999
▁418	-10.8003
ᅮᅮᅮ	-10.8003
국민	-10.8015
▁망쳐	-10.8021
까봐	-10.8042
조카	-10.8045
빗	-10.805
뭉	-10.805
램	-10.8051
뻑	-10.8051
팝	-10.8051
▁예쁘다	-10.8051
렴	-10.8051
엮	-10.8051
낯	-10.8051
할리우드	-10.8051
▁명복을	-10.8051
호불호	-10.8051
▁이끌어	-10.8051
강동원	-10.8051
제시카	-10.8051
▁도무지	-10.8051
▁sf	-10.8051
▁이루어	-10.8051
세월이	-10.8053
▁428	-10.8055
▁드림	-10.8057
▁웃으면서	-10.8058
▁극복	-10.8059
습니까	-10.806
줄알았는데	-10.8064
중년	-10.8065
▁짜증남	-10.8082
으려고	-10.8083
햇는데	-10.8083
드립	-10.8088
OST	-10.8091
▁엉성하고	-10.8101
▁수많은	-10.8101
▁많은걸	-10.8102
느냐	-10.8108
하지말고	-10.8109
평소	-10.811
▁공포물	-10.8112
▁다르게	-10.8113
▁도망	-10.8113
▁같았	-10.8118
▁반영	-10.8124
▁특이	-10.8127
▁선사	-10.8138
머야	-10.8141
밖	-10.8149
더군	-10.8163
▁손발	-10.8166
▁잠들	-10.818
셔야	-10.8191
범죄자	-10.8199
하시길	-10.8201
▁싫어하는	-10.8211
궁금해서	-10.8225
보고나니	-10.8243
뭐여	-10.8246
▁잊고	-10.8255
랫	-10.8273
셧	-10.8273
알파치노	-10.8273
쟈	-10.8273
펙	-10.8273
쉴	-10.8273
읍	-10.8273
▁즐거웠	-10.8273
스필버그	-10.8273
오프닝	-10.8273
핫	-10.8273
▁플롯	-10.8273
전반적으로	-10.8273
나루토	-10.8273
▁즐겨	-10.8273
▁혐오	-10.8273
▁맞춰	-10.8276
▁맡은	-10.8277
▁10127	-10.8277
▁239	-10.8279
▁375	-10.8281
▁폭발	-10.8281
▁흘러가는	-10.8288
▁아프다	-10.8288
분짜리	-10.8289
▁영향	-10.8292
▁272	-10.8292
▁촌스러	-10.8293
▁담배	-10.8293
▁서울	-10.8295
▁망했	-10.83
▁볼만했다	-10.8307
오래전에	-10.831
권력	-10.8314
기대없이	-10.8315
▁사랑해요	-10.8329
▁음식	-10.8332
▁재밌어서	-10.8349
ᅲᅲᅲᅲᅲᅲᅲ	-10.8358
나왓	-10.836
재밌습니다	-10.8382
해놓고	-10.839
초반부	-10.8418
겐	-10.8446
므	-10.8469
지못한	-10.8488
둑	-10.8496
▁695	-10.8496
핸	-10.85
넬	-10.85
되었습니다	-10.85
똘	-10.85
류승범	-10.85
뺏	-10.85
셜	-10.85
시종일관	-10.85
닼	-10.85
힙	-10.85
▁인내심	-10.85
송강호	-10.85
▁10249	-10.85
덩어리	-10.85
보지마셈	-10.8501
배급사	-10.8501
▁괜찮았는데	-10.8501
▁향연	-10.8502
▁472	-10.8503
▁극단적	-10.8505
▁일부러	-10.8505
▁469	-10.8507
▁374	-10.8509
▁논리	-10.8511
▁강력	-10.8511
ᅮᅲ	-10.8513
▁176	-10.8514
▁유럽	-10.8515
자마자	-10.8518
▁다행이다	-10.8523
긴했지만	-10.8529
▁재밌었던	-10.8529
호흡	-10.853
▁보시면	-10.8532
▁던져	-10.854
뻔한스토리	-10.8548
언제봐도	-10.8553
▁시작해서	-10.8558
하겠습니다	-10.8559
▁특별	-10.8561
언제까지	-10.8562
no	-10.8563
▁기억나는	-10.8568
무엇보다	-10.8573
-_-;	-10.8595
억지스럽	-10.8595
보고있어요	-10.8597
중간중간	-10.8599
2015	-10.8608
태국	-10.8624
같아요	-10.8629
녀석	-10.8631
ch	-10.8635
형편없는	-10.8664
넘넘	-10.8668
황당	-10.8677
땜	-10.8681
▁만난	-10.8693
재밋엇	-10.8699
것인지	-10.8714
▁233	-10.8718
픔	-10.8723
Good	-10.8733
맴	-10.8733
셋	-10.8733
캠	-10.8733
즉	-10.8733
푼	-10.8733
^-^	-10.8733
▁you	-10.8733
。	-10.8733
▁교과서	-10.8733
▁우려먹	-10.8733
몽환적	-10.8734
뮤직	-10.8735
▁실험	-10.8738
▁고뇌	-10.8738
▁녹아	-10.8739
▁기획	-10.8742
▁276	-10.8742
▁잔혹	-10.8743
▁오락영화	-10.8746
것같은데	-10.8748
▁만들어낸	-10.8748
▁9835	-10.8755
▁최고봉	-10.8756
▁대놓고	-10.8759
▁이거보단	-10.8763
▁연극	-10.8764
므로	-10.8765
▁411	-10.8769
▁집중해서	-10.8769
뉴스	-10.8772
▁모든걸	-10.8773
하자면	-10.8773
▁어거지	-10.8782
▁망쳐놓	-10.8786
할말없	-10.8791
그림체	-10.8797
시도는	-10.8815
칼	-10.8822
도저히	-10.8824
재밌었어요	-10.8835
ed	-10.8849
▁1027	-10.8868
▁아니잖아	-10.8871
현실감	-10.8893
머냐	-10.8897
▁않았던	-10.8902
개봉당시	-10.8902
주온	-10.8907
잔잔하게	-10.8911
소름끼치	-10.8936
▁9466	-10.8941
lo	-10.8949
▁474	-10.8966
▁부끄러	-10.8966
어설프다	-10.8968
Y	-10.8971
뢰	-10.8971
밧	-10.8971
EBS	-10.8971
ᄁ	-10.8971
브루스	-10.8971
▁호기심	-10.8971
빨갱이	-10.8971
은근히	-10.8971
아바타	-10.8971
▁즐길	-10.8971
마누라	-10.8972
도데체	-10.8972
▁상관없	-10.8972
미안하다	-10.8973
▁돌아보게	-10.8975
▁판단	-10.8975
▁10108	-10.8976
▁10122	-10.8976
▁생각해보게	-10.8977
짱짱맨	-10.8977
▁처절	-10.8979
▁폐지	-10.8982
▁232	-10.8986
각각	-10.8989
▁1,2	-10.8989
▁향수	-10.899
아아아	-10.899
삶과	-10.8994
난해한	-10.9002
▁무겁	-10.9002
▁만든건지	-10.9014
▁살았	-10.9016
▁원조	-10.9024
▁않았지만	-10.9025
에라이	-10.903
▁불가능	-10.9058
오랜	-10.9076
영웅	-10.9093
뻔했다	-10.91
싶으면	-10.9103
재밌었다	-10.9121
▁옆에	-10.9134
졸려	-10.9162
남친	-10.9178
멜	-10.9184
▁세번	-10.9199
일반인	-10.9199
섯	-10.9201
보고싶어요	-10.9204
▁10182	-10.9209
쉐	-10.9215
▁만들었네	-10.9215
▁만들었을까	-10.9215
랴	-10.9215
맺	-10.9215
뻥	-10.9215
쩍	-10.9215
포켓몬	-10.9215
못봐주겠	-10.9215
▁바탕으로	-10.9215
한석규	-10.9215
▁익숙	-10.9215
▁그럴듯	-10.9215
▁민폐	-10.9216
성유리	-10.9216
▁입장에서	-10.9218
▁예측	-10.9218
▁좋았을텐데	-10.9218
▁당황	-10.9222
▁먹칠	-10.9223
무간도	-10.9223
플레이	-10.9224
특집	-10.9226
▁잘못된	-10.9238
▁울면서	-10.9254
ce	-10.9264
▁231	-10.9277
▁있기	-10.9301
싶어지는	-10.9327
썩	-10.9342
쓰래기	-10.9342
무협	-10.9354
▁답답함	-10.9398
ho	-10.9448
앉	-10.9455
만들지	-10.9461
뜬	-10.9462
movie	-10.9465
꾹	-10.9465
니콜라스	-10.9465
디카프리오	-10.9465
딜	-10.9465
릇	-10.9465
썸	-10.9465
ᄐ	-10.9465
ᅢ	-10.9465
▁역겨운	-10.9465
▁재미있었습니다	-10.9465
톡	-10.9465
툭	-10.9465
▁역겹다	-10.9465
▁9238	-10.9465
▁놀랐다	-10.9465
고등학생	-10.9465
▁10243	-10.9465
▁9753	-10.9465
신하균	-10.9465
▁막판에	-10.9465
잊지못할	-10.9465
내생애	-10.9465
원숭이	-10.9465
것같네요	-10.9466
빠순이	-10.9468
닥치고	-10.9469
▁758	-10.9469
▁낫겠다	-10.9471
▁자극적인	-10.9478
▁못하겠다	-10.9478
엽기	-10.9478
▁759	-10.9481
또봐도	-10.9481
강아지	-10.9482
▁속았다	-10.9484
▁울었어요	-10.9485
▁울리는	-10.9492
▁256	-10.9492
▁10020	-10.9492
장난하냐	-10.9497
▁있었으면	-10.9509
것같아	-10.9512
▁생각난다	-10.9523
불쌍해서	-10.953
▁않으면	-10.9543
▁커버	-10.9551
▁믿기지	-10.9555
마틴	-10.9577
점주기도	-10.9585
재미가없	-10.9598
지않게	-10.9616
왜이리	-10.9618
조폭	-10.9624
본적이	-10.9625
독립	-10.9628
뭐랄까	-10.9636
ter	-10.9653
▁9459	-10.9669
조낸	-10.9673
세상에서	-10.9677
▁정신병	-10.9683
삭	-10.9715
꼈	-10.9721
혔	-10.9721
▁만들었나	-10.9721
감명깊게	-10.9721
뿜	-10.9721
스타워즈	-10.9721
엔딩크레딧	-10.9721
▁9838	-10.9721
뚝	-10.9721
권상우	-10.9721
아무생각없이	-10.9721
테이큰	-10.9721
홍상수	-10.9721
클래식	-10.9721
쯧쯧	-10.9721
차승원	-10.9721
미스캐스팅	-10.9721
▁흥미로웠	-10.9721
한숨만	-10.9722
▁각색	-10.9722
▁혼란	-10.9722
▁떠올리	-10.9722
일주일	-10.9723
▁루즈	-10.9724
▁10178	-10.9725
잼씀	-10.9729
▁동영상	-10.9732
뒤늦게	-10.9733
▁말아야	-10.9733
심오한	-10.9734
▁말하려는	-10.9739
▁얻어	-10.974
▁10125	-10.9745
▁충격적인	-10.9751
▁담긴	-10.9758
▁드네요	-10.9763
시간동안	-10.9763
▁고문	-10.9766
장혁	-10.9781
아닌가요	-10.9796
팬이라	-10.9818
피곤	-10.9869
등장인물	-10.989
귀여운	-10.989
리메이크	-10.9891
▁만들려	-10.9895
슬픈	-10.9897
힘든	-10.9898
흥행	-10.9899
▁10103	-10.9972
될까	-10.998
렀	-10.9984
헉	-10.9984
릅	-10.9984
윌리엄	-10.9984
팩	-10.9984
▁즐거움	-10.9984
듦	-10.9984
몫	-10.9984
쌓	-10.9984
썬	-10.9984
츄	-10.9984
타란티노	-10.9984
홈	-10.9984
룰	-10.9984
웟	-10.9984
영웅본색	-10.9984
▁마찬가지	-10.9984
▁섬뜩	-10.9984
▁무엇인가	-10.9984
데이빗	-10.9984
시끄러	-10.9984
▁10220	-10.9985
▁아쉬울	-10.9985
드니로	-10.9986
하이틴	-10.9986
▁10024	-10.9988
슈퍼맨	-10.9988
▁분량	-10.9989
▁10105	-10.999
닥터	-10.9991
엄청나게	-10.9993
▁신선하	-10.9996
문득	-11.0012
조잡한	-11.0026
온갖	-11.0032
▁졸았	-11.0038
▁정신병자	-11.0038
오르는	-11.0039
투성이	-11.0052
아만다	-11.0075
▁10244	-11.0081
▁9790	-11.0084
프로그램	-11.0176
대단하다	-11.0177
완성도	-11.0177
특유의	-11.0177
▁10221	-11.0218
잔잔하	-11.0229
ᄃᄃᄃᄃ	-11.0243
앵	-11.0253
com	-11.0254
***	-11.0254
맷	-11.0254
욤	-11.0254
박찬욱	-11.0254
왈	-11.0254
훔	-11.0254
캡	-11.0254
▁9235	-11.0254
▁9237	-11.0254
유치찬란	-11.0254
▁가까운	-11.0255
▁펼쳐	-11.0255
▁9751	-11.0255
▁피아노	-11.0255
▁갖춘	-11.0255
▁거부감	-11.0256
페이스	-11.0256
▁쏟아	-11.0256
▁직업	-11.0256
▁흥분	-11.0256
▁느껴질	-11.0256
▁9306	-11.0257
▁그려낸	-11.0258
▁다운받아서	-11.0258
▁8024	-11.0258
▁10018	-11.0258
▁10126	-11.026
▁승부	-11.026
스파이	-11.0261
▁못보겠다	-11.0262
▁개그맨	-11.0262
립니다	-11.0264
기발한	-11.0264
▁저평가	-11.0268
▁있겠지만	-11.0268
십니다	-11.0275
▁낚인	-11.0294
입니까	-11.0303
투표	-11.0322
졸잼	-11.0348
▁의미있	-11.0351
초반엔	-11.0372
▁9756	-11.0375
▁못만들	-11.0409
감동받	-11.0447
더빙판	-11.0469
묻	-11.047
감사합니다	-11.047
흥미진진	-11.0471
av	-11.0507
남자배우	-11.0507
괜	-11.0524
갠	-11.0529
붉	-11.0532
솜	-11.0532
퀄	-11.0532
▁점수준것들	-11.0532
뚫	-11.0532
랏	-11.0532
렘	-11.0532
밉	-11.0532
블랙코미디	-11.0532
쏴	-11.0532
짙	-11.0532
텅	-11.0532
파라노말	-11.0532
도라에몽	-11.0532
▁9839	-11.0532
힘내세요	-11.0532
,.,.,	-11.0532
▁밝혀	-11.0532
박보영	-11.0533
▁워낙	-11.0533
머릿속	-11.0533
▁거기서	-11.0533
원피스	-11.0533
스피드	-11.0533
괜찬	-11.0534
4.44	-11.0534
▁쉬운	-11.0534
▁무엇이	-11.0535
▁역량	-11.0537
▁도둑	-11.0538
▁10118	-11.0538
▁채우	-11.0538
▁괜찮았음	-11.0539
na	-11.0539
▁케미	-11.0539
▁배꼽	-11.054
▁말씀	-11.054
합시다	-11.0541
다니엘	-11.0546
▁장난아니	-11.055
▁라스트	-11.0552
▁173	-11.0556
▁236	-11.056
말이필요	-11.0572
쓰렉	-11.0581
자극적이	-11.0597
▁9796	-11.0643
▁그리워	-11.0651
보여서	-11.0664
엽	-11.0792
븐	-11.0818
튜	-11.0818
꽉	-11.0818
띠	-11.0818
쌈	-11.0818
턱	-11.0818
룬	-11.1098
냄	-11.1111
쯔	-11.1111
쿡	-11.1112
덮	-11.1112
졋	-11.1112
둠	-11.1112
뼈	-11.1112
줫	-11.1112
켓	-11.1112
릉	-11.1415
뱀	-11.1415
껀	-11.1415
됫	-11.1415
☆	-11.1415
쏟	-11.1726
댓	-11.1726
퉁	-11.1726
걷	-11.1728
껍	-11.1728
룸	-11.1728
잣	-11.1728
쭈	-11.1728
퀸	-11.1728
팽	-11.1728
훼	-11.1728
헝	-11.1728
켰	-11.205
렐	-11.205
좆	-11.205
쨋	-11.205
앜	-11.205
얀	-11.205
늬	-11.2384
숲	-11.2384
넓	-11.2384
헨	-11.2384
첩	-11.2694
즌	-11.2713
쯧	-11.2728
끓	-11.2728
툰	-11.2728
넷	-11.2728
둡	-11.2728
탠	-11.2728
믄	-11.2728
캔	-11.2728
짠	-11.2814
뿔	-11.3079
봅	-11.3082
펑	-11.3085
쉣	-11.3085
밸	-11.3085
핏	-11.3085
↓	-11.3085
닦	-11.3085
덧	-11.3085
쏙	-11.3085
짖	-11.3085
밨	-11.3085
켈	-11.3085
겻	-11.3086
둬	-11.3086
#	-11.3086
깐	-11.3428
믹	-11.3452
꿔	-11.3453
뜸	-11.3456
ᅦ	-11.3456
쇠	-11.3456
겄	-11.3456
겸	-11.3456
굉	-11.3456
녁	-11.3456
륵	-11.3456
꼇	-11.3456
륙	-11.3456
빚	-11.3456
퍽	-11.3456
꺄	-11.3456
끗	-11.384
뜩	-11.384
떳	-11.384
펀	-11.384
썻	-11.384
곁	-11.384
꽁	-11.384
딕	-11.384
삘	-11.384
샌	-11.384
텀	-11.384
흙	-11.384
샷	-11.384
큼	-11.4105
쎄	-11.4232
뱅	-11.424
Z	-11.424
ᄊ	-11.424
‘	-11.424
꿨	-11.424
뺨	-11.424
쉰	-11.424
펴	-11.424
궈	-11.4241
낌	-11.4655
뎀	-11.4656
률	-11.4657
쩡	-11.4657
人	-11.4657
벙	-11.4657
윽	-11.4657
탭	-11.4657
’	-11.4657
갇	-11.4657
댈	-11.4657
듀	-11.4657
멕	-11.4657
샬	-11.4657
칫	-11.4657
흰	-11.4657
ᄑ	-11.4657
뎌	-11.4657
훨	-11.4905
댕	-11.5092
홉	-11.5092
럿	-11.5092
훗	-11.5092
힛	-11.5092
뀌	-11.5544
엣	-11.5546
묶	-11.5546
꼼	-11.5546
샀	-11.5546
돕	-11.5546
됌	-11.5546
탔	-11.5546
횽	-11.5546
뒷	-11.5874
밋	-11.6016
췄	-11.6023
꾀	-11.6023
띵	-11.6023
빤	-11.6023
뻘	-11.6023
솟	-11.6023
웰	-11.6023
췌	-11.6023
썅	-11.6023
q	-11.6023
甲	-11.6023
콤	-11.651
걱	-11.6519
줍	-11.652
펼	-11.6523
쏠	-11.6523
귓	-11.6523
뇨	-11.6523
켠	-11.6523
·	-11.6523
넋	-11.6523
뉘	-11.6523
뒀	-11.6523
뺀	-11.6523
뺐	-11.6523
씌	-11.6523
햄	-11.6523
횡	-11.6523
긍	-11.7048
훅	-11.7049
뎁	-11.7049
욧	-11.7049
긔	-11.7049
롬	-11.7049
쑤	-11.7049
좁	-11.7049
눠	-11.7049
뚤	-11.7049
쌩	-11.7049
엌	-11.7049
웁	-11.7049
젓	-11.7049
쬐	-11.7049
|	-11.7049
떤	-11.7578
옵	-11.7601
쪄	-11.7605
쌀	-11.7605
웩	-11.7605
짭	-11.7605
챔	-11.7605
촉	-11.7605
컵	-11.7605
숫	-11.7605
짚	-11.7605
잎	-11.7605
푹	-11.8175
갤	-11.8193
샹	-11.8193
ᆞ	-11.8193
꺅	-11.8193
뿅	-11.8193
젬	-11.8193
갸	-11.8193
꽂	-11.8193
됀	-11.8193
뤽	-11.8193
붐	-11.8193
엥	-11.8193
칩	-11.8193
콕	-11.8193
햐	-11.8193
댐	-11.8193
늑	-11.8815
톨	-11.8818
됴	-11.8818
뛴	-11.8818
쒸	-11.8818
왼	-11.8818
쵸	-11.8818
펄	-11.8818
뜰	-11.8818
뮬	-11.8818
밈	-11.8818
슌	-11.8818
얹	-11.8818
넼	-11.8818
뭇	-11.9475
밌	-11.9478
짬	-11.9484
몹	-11.9484
섰	-11.9484
넨	-11.9484
떴	-11.9484
붓	-11.9484
슐	-11.9484
씽	-11.9484
쟝	-11.9484
텨	-11.9484
쫙	-11.9484
풉	-11.9484
덥	-11.9485
얌	-11.9485
융	-12.0199
“	-12.0199
뺑	-12.0199
휼	-12.0199
괘	-12.0199
꺾	-12.0199
늠	-12.0199
딥	-12.0199
퀀	-12.0199
無	-12.0199
닳	-12.0199
윗	-12.0199
욜	-12.0199
○	-12.0199
젼	-12.0956
깼	-12.0968
꿰	-12.0968
Q	-12.0968
겜	-12.0968
빔	-12.0968
캅	-12.0968
→	-12.0968
굵	-12.0968
댔	-12.0968
됏	-12.0968
뷁	-12.0968
셰	-12.0968
쨩	-12.0968
ᅧ	-12.0968
낱	-12.0968
땠	-12.0968
륨	-12.0968
믓	-12.0968
빽	-12.0968
샴	-12.0968
쌔	-12.0968
앳	-12.0968
쿼	-12.0968
킷	-12.0968
핡	-12.0968
멧	-12.0968
팡	-12.0968
し	-12.0968
ᅭ	-12.1801
뭍	-12.1801
겔	-12.1801
댁	-12.1801
밭	-12.1801
쁠	-12.1801
쉘	-12.1801
썽	-12.1801
좃	-12.1801
죵	-12.1801
쿤	-12.1801
”	-12.1801
폄	-12.1801
쌤	-12.1801
숴	-12.1801
곸	-12.1801
\	-12.1802
い	-12.1802
뵈	-12.271
헷	-12.271
촘	-12.271
쒯	-12.271
♬	-12.271
꼐	-12.271
꿉	-12.271
넴	-12.271
맬	-12.271
쑈	-12.271
읎	-12.271
쪙	-12.271
쾅	-12.271
잌	-12.271
텍	-12.271
툴	-12.271
놉	-12.271
땟	-12.271
벡	-12.271
퀘	-12.271
팜	-12.271
댜	-12.271
ス	-12.2711
죤	-12.3709
웹	-12.371
ᅣ	-12.371
괸	-12.371
쨔	-12.371
乃	-12.371
꺽	-12.371
넝	-12.371
뎃	-12.371
뱃	-12.371
얍	-12.371
츤	-12.371
큘	-12.371
킁	-12.371
굼	-12.371
넛	-12.371
윅	-12.371
콱	-12.371
핥	-12.371
걔	-12.371
얔	-12.371
캣	-12.371
멎	-12.371
갚	-12.371
뎈	-12.371
힝	-12.371
}	-12.3711
ッ	-12.3711
컥	-12.4819
넥	-12.4821
뻗	-12.4821
랠	-12.4821
뿍	-12.4821
싯	-12.4821
찼	-12.4821
흣	-12.4821
냔	-12.4821
뿡	-12.4821
샵	-12.4821
앍	-12.4821
』	-12.4821
롹	-12.4821
빰	-12.4821
옌	-12.4821
욘	-12.4821
욥	-12.4821
쟤	-12.4821
쳇	-12.4821
쳣	-12.4821
꺠	-12.4822
슝	-12.4822
곀	-12.4822
$	-12.4822
{	-12.4822
で	-12.4823
귄	-12.6071
쑥	-12.6071
욯	-12.6071
겅	-12.6071
껌	-12.6071
웡	-12.6071
ᄈ	-12.6071
♪	-12.6071
『	-12.6071
作	-12.6071
궂	-12.6071
꽈	-12.6071
뺄	-12.6071
퉷	-12.6071
헿	-12.6071
넉	-12.6071
눅	-12.6071
벳	-12.6071
쏭	-12.6071
큭	-12.6071
팟	-12.6071
잴	-12.6072
챤	-12.6072
끽	-12.6072
첸	-12.6072
す	-12.6072
돠	-12.75
ᄄ	-12.75
꿍	-12.75
녜	-12.75
뇬	-12.75
뒈	-12.75
쉼	-12.75
故	-12.75
갯	-12.75
굽	-12.75
룻	-12.75
뽐	-12.75
냇	-12.75
땔	-12.75
떵	-12.75
븅	-12.75
굶	-12.75
슛	-12.75
롸	-12.75
ン	-12.75
、	-12.75
女	-12.75
た	-12.7501
쩐	-12.9097
쵝	-12.916
첼	-13.3665
슷	-13.6963
펭	-13.7
숟	-14.189
랖	-14.1891
딪	-14.1892
덱	-14.1893
닠	-14.1894
뉜	-14.1895
괄	-14.1896
헴	-14.1897
뵙	-14.1898
볶	-14.1899
랗	-14.19
낍	-14.1901
헵	-14.1902
큽	-14.1903
춥	-14.1904
윙	-14.1905
빴	-14.1906
뒹	-14.1907
냨	-14.1908
낰	-14.1909
깽	-14.191
괞	-14.1911
セ	-14.1912
ク	-14.1913
흩	-14.1914
휠	-14.1915
훑	-14.1916
촛	-14.1917
잰	-14.1918
껑	-14.1919
훤	-14.192
횟	-14.1921
홥	-14.1922
핍	-14.1923
쥑	-14.1924
뺴	-14.1925
긁	-14.1926
옜	-14.1927
샐	-14.1928
콥	-14.1929
깬	-14.193
낡	-14.1931
뀔	-14.1932
씻	-14.1933
쁩	-14.1934
뤘	-14.1935
펏	-14.1936
퀼	-14.1937
얕	-14.1938
셸	-14.1939
꿋	-14.194
휩	-14.1941
녔	-14.1942
핳	-14.1943
쥔	-14.1944
쿄	-14.1945
쫒	-14.1946
욬	-14.1947
엎	-14.1948
릎	-14.1949
뀐	-14.195
킵	-14.1951
딨	-14.1952
룹	-14.1953
픕	-14.1954
펠	-14.1955
얽	-14.1956
앓	-14.1957
뭡	-14.1958
꽥	-14.1959
젝	-14.196
뜯	-14.1961
뱉	-14.1962
멤	-14.1963
옮	-14.1964
맑	-14.1965
뻣	-14.1966
밟	-14.1967
뤄	-14.1968
홧	-14.1969
쫓	-14.197
찢	-14.1971
냅	-14.1972
빕	-14.1973
쨌	-14.1974
컸	-14.1975
틋	-14.1976
뷔	-14.1977
껐	-14.1978
팠	-14.1979
콧	-14.198
텝	-14.1981
뻤	-14.1982
왤	-14.1983
딧	-14.1984
섞	-14.1985
펐	-14.1986
맙	-14.1987
쁨	-14.1988
됩	-14.1989
찝	-14.199
뭥	-14.1991
촬	-14.1991
잃	-14.1992
훌	-14.1993
떻	-14.1994
깊	-14.1995
쁘	-14.1996
깝	-14.1997
렇	-14.1998
봤	-14.1999
었	-14.2
웍	-14.2
탤	-14.2
